0014
0007
FFF2
FFDD
0001
0007
0000
001B
0009
FFED
0006
FFC7
FFFE
0001
FFDA
FFE7
0004
FFE0
000B
0013
FFFD
0003
FFFA
001D
001D
0022
FFE2
FFE9
FFEF
0013
0007
FFDB
000A
0019
FFDD
0027
FFFE
002C
0009
000A
FFE2
0002
FFEF
0019
FFE5
FFE1
0000
0006
0018
0019
0018
0001
FFD4
FFEE
FFE7
0000
FFFF
0008
FFE3
001B
FFE7
000B
0005
FFE4
FFF9
FFEC
0016
FFF7
0003
FFE1
0053
FFE0
FFDC
FFF7
0002
FFEC
0026
FFFD
000B
0016
0001
0025
0011
0003
0022
FFED
FFF3
0024
000E
001C
FFFC
002E
FFE5
FFE0
0029
0000
0029
0013
FFDF
000E
FFFF
0018
FFF8
FFF5
FFDB
0020
FFDE
0003
001B
002B
0002
0007
FFDF
0013
FFD9
FFFC
0026
000B
0015
000D
000E
FFE5
0029
0007
0011
FFD4
FFD8
001F
FFF1
FFE4
FFE4
FFDF
FFFB
FFDF
000C
FFD1
0025
0025
0018
FFED
FFDA
FFFE
0025
FFEE
001B
0013
FFDD
0000
FFFE
FFFF
FFFE
0005
FFFF
0008
FFDE
FFEC
0010
0023
001E
001D
FFFE
000E
0012
0000
FFFB
0010
000E
0007
0015
0014
000F
FFE0
0014
FFE0
FFD8
000C
0020
FFEB
FFE8
0010
0002
FFFA
0025
FFF7
001F
001E
0030
0025
FFE5
001F
0011
0032
FFEB
0009
FFE8
0026
FFF8
FFE9
0030
FFD6
FFD9
FFEB
FFE3
FFFF
0010
002F
0006
0034
FFEA
FFFC
FFE1
0039
FFCA
0029
FFDC
0016
0009
FFEE
0003
0005
0024
FFF8
002E
002A
FFE5
0005
000C
001C
FFDA
000F
FFDA
0011
FFD6
0022
FFEE
0024
001C
FFED
0011
FFDE
0020
000A
0027
FFE5
0012
FFDC
FFF8
001B
0018
FFEA
0027
0004
FFFA
002E
000C
FFF2
FFF5
FFDE
FFFD
FFE4
FFDB
0003
0006
0019
0022
FFD1
0013
001C
FFCD
0005
FFE0
0001
0023
FFEF
0019
0023
FFFD
FFF4
FFE9
0010
FFF9
FFEA
001F
0013
FFF3
000C
FFEE
0000
FFF0
0000
0009
FFFD
FFE5
001F
FFE8
FFE0
0020
FFFC
0011
0020
002E
FFD9
FFE7
FFFB
FFE1
FFF8
FFFE
001F
FFD9
FFDD
000F
0020
0021
0024
0006
FFDB
FFF3
0002
0008
FFFE
001A
0019
FFE5
0004
0009
001E
000A
0014
000D
FFF3
002A
FFEE
FFDC
0012
002C
FFEE
0001
0016
0000
0006
FFF7
FFE8
FFCC
0013
0030
0002
000C
0017
0013
FFF2
0014
000F
0019
FFFA
0017
000F
0006
FFEF
0022
0018
0020
0001
0013
002B
0008
0012
FFC5
0006
FFF6
FFFF
FFEE
0014
FFE8
FFDC
FFFF
FFF5
0016
0017
0000
000E
0017
0000
FFEE
0005
FFFF
0000
0005
0009
FFEC
FFFC
FFE3
FFF8
0013
0015
FFED
000E
FFFA
0005
0005
FFEA
0026
FFD9
001B
FFEF
FFE7
0000
FFD9
FFF9
0003
FFD9
0001
FFF4
FFFE
FFFE
FFF4
000C
0012
FFCD
0000
0000
0013
FFE2
FFE5
FFE0
FFD9
0039
FFE9
0005
FFEF
001F
0020
FFE1
FFED
FFD4
002E
FFDE
FFF1
FFC4
000C
FFEF
0025
FFE2
FFEB
FFDC
FFD2
FFEB
FFF0
FFE8
FFF0
0008
FFD8
FFE8
0019
FFDC
0004
FFDB
0010
0019
FFE7
000C
FFF7
FFF4
FFEC
FFFF
000B
000E
0024
FFE5
FFC9
FFF1
FFDC
FFDD
002C
FFF7
FFE1
FFF6
FFFC
FFE3
FFD9
0011
FFF8
0007
001D
0009
FFF4
002C
0005
0027
FFDB
0010
0004
000A
001D
FFD4
000D
FFFC
0027
FFE5
0015
FFF9
001C
FFEF
001A
FFE2
FFF3
FFF3
001C
0004
FFED
FFFE
001C
001F
FFDC
0003
FFD1
FFE7
FFEA
FFF2
FFF6
FFE4
FFFF
000A
001D
FFDF
FFDB
0009
0002
0006
FFFD
FFF1
FFEC
000F
000A
0002
FFEF
FFEE
001A
0018
FFED
FFFB
FFD9
000D
0009
FFFE
0018
0007
0014
0014
001B
0013
0030
FFFD
FFF2
0006
001C
FFF0
FFF2
FFEA
0027
001F
FFF6
001C
FFE6
FFEF
FFE7
0002
FFD7
FFE4
FFD6
FFDA
0013
0023
0004
001D
0009
FFD9
001E
FFF3
004B
FFE6
0039
FFE0
001A
FFE1
003E
FFE3
0006
0019
FFFF
000F
0007
001A
0008
FFFE
FFFF
0000
0014
FFD4
FFDD
0020
0009
FFFC
FFE5
FFEF
001F
FFF1
0015
FFDC
0007
FFF9
FFD2
FFF9
FFE4
000A
FFFD
FFFB
FFE1
FFE8
FFDC
0007
FFE2
0020
001E
FFF5
000B
FFF3
FFF9
FFFB
FFEC
0031
FFC4
003C
FFF4
FFD6
FFE2
FFF9
FFF4
FFD2
0031
FFDF
0000
FFEA
FFF1
FFFA
0009
FFF2
FFF5
FFE9
FFDB
FFE3
FFD8
FFE1
001B
0024
002D
FFEA
0013
FFEC
FFE7
0011
0016
FFFC
FFFC
0021
FFFD
0017
0028
FFDA
FFD9
FFFB
001E
001E
0016
0003
FFFD
FFEB
FFFD
FFE3
0013
0029
0015
002F
002B
0034
000A
0006
0031
FFD7
0007
0017
0035
FFF1
FFDA
0011
FFE4
0005
0023
FFEF
FFCC
000D
001D
000D
FFD2
0001
FFF0
FFF9
0002
FFFD
FFDA
002C
FFDD
0010
FFDF
0006
FFFA
0006
000D
FFEB
0047
000A
FFE8
FFDD
FFE7
FFE3
FFE5
0005
0010
0000
FFF9
FFFF
001E
0011
000E
FFE2
FFF3
FFDD
FFF1
FFE0
000E
0005
0006
FFF5
0024
FFDC
0007
000D
FFF1
FFF2
FFF8
FFD8
0027
FFFD
FFED
0010
0029
FFDC
0021
FFE6
FFCD
0001
0018
FFD8
FFF2
FFEA
FFE0
001F
0017
FFDE
0004
0010
0013
FFF5
FFF1
FFEB
FFE0
0005
0009
000D
0005
FFD8
FFE8
0020
002A
FFDC
0042
0010
0004
000D
0000
FFFE
000C
FFC7
0001
FFEB
001D
FFD8
000D
0001
0031
0013
FFFA
FFF4
FFDE
001D
0014
FFEA
FFD4
001C
0007
FFC7
0035
0034
0005
FFC4
FFFE
FFFE
FFF5
000B
FFF3
FFC9
002C
0026
0023
0020
000B
0016
FFFB
0016
FFF0
0020
FFED
FFE7
0030
0003
FFF8
FFF5
FFC4
0017
FFF2
FFFA
FFC4
FFB3
FFE5
FFFB
000B
FFFF
000D
FFBF
0022
0006
FFF4
0022
0009
0018
FFF6
FFDE
0026
0017
FFDB
FFFA
0015
002A
FFFB
FFC8
FFF1
0016
FFDE
FFFF
001B
000D
FFEB
000B
FFEC
0002
000E
0009
002A
0019
000D
FFFA
FFE7
0026
FFD8
0016
FFEC
0023
001A
FFE8
0010
FFDF
FFEB
FFFE
0008
FFDA
0008
FFE3
0009
0006
FFEB
FFD3
0000
FFF9
FFE4
FFD2
0024
000E
0011
FFE0
0007
FFDD
0002
FFD6
002D
FFFA
001D
FFDA
FFF6
0010
0026
FFD6
FFE5
0016
0047
0011
0019
FFE8
000B
0023
0003
FFED
0019
0015
FFE9
0026
0010
0017
0006
001A
0016
0011
FFFD
FFE7
0007
0027
001A
FFE2
FFF7
FFDA
FFFD
FFD6
0002
FFE8
0021
FFE2
001E
0018
FFF3
FFEA
0029
0017
FFDB
FFFF
0006
0025
0019
002C
0025
0024
0028
FFCA
FFF8
0015
001E
FFF4
0030
0025
FFD7
001B
0013
0025
FFF5
FFF2
0004
FFFD
0004
0007
001F
FFF1
0006
0017
0009
0001
FFFF
0039
0027
0000
001C
0010
FFFC
001D
FFFB
0020
0016
000B
001C
FFF8
0001
0008
FFEC
FFE8
FFF1
0012
FFF5
0012
0024
FFED
0012
FFF7
FFF0
FFDE
FFE6
FFFE
001E
FFE7
FFF1
001B
FFDB
FFDD
FFEF
001F
FFFB
0000
0003
FFF8
002E
FFE6
0020
0003
0027
FFD6
FFDC
FFFD
0009
0028
FFEF
FFDC
FFF3
0015
FFF9
FFF1
FFEC
FFDB
000E
FFE1
FFE4
0027
FFD1
002B
FFE4
FFEE
0015
FFDA
000D
FFEC
FFF2
0016
000B
000E
FFD7
FFE0
FFF8
FFDC
000D
0001
0019
FFE1
FFD9
FFFC
FFEF
0003
0024
0010
FFFD
0016
0009
FFFD
0007
000D
0008
001E
001F
FFEB
000C
FFEF
FFE4
FFF0
FFEC
FFF1
0003
0012
001F
FFE9
FFF1
FFEE
001D
001B
FFE7
0028
FFDB
FFFC
FFE8
0004
0019
FFFD
0006
0025
0004
FFED
FFFA
0011
FFDB
0029
FFF3
FFE1
000D
001C
000D
0007
0000
000E
FFEF
FFE2
FFF1
FFFD
001A
FFE6
FFD5
FFEC
FFDC
FFE0
FFDA
FFE9
FFF9
FFCE
002F
FFE6
001B
0002
002E
FFDF
0015
FFF9
0033
FFFE
FFE4
FFF5
001B
000A
FFE4
001C
FFDE
001B
0012
FFDA
0006
FFF1
FFE0
0019
000A
0017
FFED
FFE4
FFF0
FFDE
001E
FFF1
FFE3
FFF4
FFEA
FFEB
FFE7
001B
0038
0027
0010
FFCB
FFED
001B
FFF3
000C
FFFD
0036
FFDC
0015
FFDB
002B
0031
FFE6
0008
000B
0016
FFD6
000D
0007
FFDF
000C
0042
0013
FFE6
001B
001F
FFDA
002A
0015
0017
0028
FFEC
0000
FFD5
0008
FFFE
000F
000E
0017
FFE2
0000
000B
FFE1
0013
FFEC
0013
FFFF
FFF6
FFE0
0010
FFF6
000C
FFEC
0004
000D
0011
0010
FFE7
FFF9
001C
FFDC
001A
0000
FFEC
000E
001E
FFD5
FFF3
FFFE
0024
FFD1
000D
0019
0002
FFDF
FFDA
FFF7
FFE1
0014
FFED
FFD4
0001
0005
FFF0
FFCF
FFFE
0012
0023
FFFF
FFD9
0036
FFD7
FFCC
FFDC
000D
FFFE
0008
FFD4
0029
FFFA
0007
FFF5
0011
0025
FFD4
FFE4
FFFE
0027
0020
002D
FFCA
FFE3
0015
FFE4
0024
0004
FFF4
0023
0028
0009
FFE2
001D
FFE1
FFF8
FFF8
0001
0003
0014
FFFB
0016
FFFE
001A
FFEE
FFFD
002F
FFDB
0015
0021
FFEB
0018
FFF7
0021
FFD8
0021
000B
0020
FFEA
0018
000F
FFDE
001C
FFF0
FFFD
000A
0017
0012
FFFF
000A
000F
0021
FFF7
FFE8
001D
0049
FFF2
FFDA
FFF6
FFF9
000F
001D
FFE3
FFDB
FFF7
FFE9
002A
0009
FFEE
FFE7
FFE6
FFD8
FFE7
FFD5
FFF4
000E
001B
002F
0016
0020
0018
FFFD
001F
FFF3
FFF2
000B
0020
FFF4
002B
FFF7
FFF9
FFEA
FFE4
FFDD
0018
FFD8
0028
FFE7
FFFA
0015
FFEC
FFFB
FFF3
001E
001C
FFFF
0027
0018
FFF9
0020
001A
FFE5
FFCC
001F
0001
FFF6
FFF9
FFFD
0025
0017
FFD5
FFDA
FFEA
0028
0005
0020
002E
FFF2
FFF6
FFEA
001D
FFDF
FFEC
FFE4
0029
FFE3
001D
FFFA
FFF7
000A
0015
001A
FFFF
FFD7
FFEE
0023
0011
FFFA
FFEF
FFDF
FFF0
FFFA
0000
000E
FFE1
FFDE
FFF5
0022
000C
0002
0011
FFFB
FFE2
FFEB
0012
FFFF
0002
FFE4
FFCD
FFDC
FFF6
0004
FFFE
001E
000D
0037
FFF8
0030
FFF5
FFFD
0016
001F
001C
FFE3
0033
0018
0015
000A
FFEB
001D
FFE7
0027
FFF4
FFF3
FFF0
0028
FFEA
0046
FFF8
001A
FFDC
0004
002D
FFCB
FFF2
001E
001B
FFF1
FFD3
0008
0009
001A
001B
FFF1
0021
0000
002A
FFF2
0020
0006
FFFB
FFF7
FFFD
0008
0015
FFF5
0016
0005
0033
FFFD
FFFB
FFEB
FFEC
FFDE
002F
001B
000F
FFEA
0010
000E
000A
0015
FFF0
FFFF
FFCE
FFD9
002B
0009
0001
FFF8
FFE9
002C
FFDA
0005
003A
FFF1
FFC9
001A
0008
FFDA
0000
0011
FFD5
0002
0015
FFF2
000C
000C
0005
0011
FFEF
0009
000D
0029
FFF5
001D
001A
000F
FFF1
0022
FFE0
FFE0
0007
FFDF
0026
FFD8
0001
0020
FFE3
0021
0032
0001
001C
0009
FFF6
FFED
001B
000E
001B
0020
001E
000E
FFD7
0028
FFDC
FFFD
001A
0017
001F
FFD5
002B
0021
0033
0002
FFE4
0007
0018
0005
FFE9
000F
FFE6
FFF8
0013
001D
001F
0000
FFF6
FFEE
001E
FFD5
FFD0
0024
0012
001D
FFFC
0008
0013
0014
0017
0005
FFE1
002B
FFE7
FFEF
FFDD
FFD2
FFFC
0003
FFEF
FFE4
FFDF
FFFB
000F
FFDE
FFF5
0025
FFDD
0021
FFE7
000E
001F
000B
0012
000D
FFE2
0016
002C
0030
0003
0018
FFF8
0004
FFEC
0011
001A
000C
FFFB
0014
0003
FFE0
0018
0027
FFFD
0007
0002
003B
FFCB
FFF1
FFF4
0017
FFD6
FFE0
0016
0007
FFDE
FFF9
FFF3
FFDB
FFEB
FFF8
001E
FFCF
0017
FFF4
0013
FFF4
FFF7
FFFD
0011
000F
001A
0014
FFEF
0005
0024
0022
0016
0019
FFD8
0009
0013
FFFE
001B
FFD7
FFDC
FFF5
FFEC
0008
0002
0000
FFFA
FFE7
0017
FFFA
FFEA
001D
0009
FFDE
002D
0005
FFE8
0024
0005
FFFC
FFE5
0001
0021
FFDE
FFFF
FFF3
FFE7
FFEC
FFE8
FFFE
001C
FFFA
FFED
0017
FFFA
FFFB
FFF8
FFCE
0012
0018
0030
0001
FFF8
FFF7
0012
000A
FFD2
000F
FFED
FFE2
000A
FFD7
002F
001A
0031
FFF8
0027
FFDB
0017
FFFA
000B
0007
0014
0004
FFFC
FFDF
FFF2
FFEC
0021
FFD8
FFF9
FFE6
001E
FFF1
0018
FFF6
FFDB
0019
FFF6
0024
002C
FFF5
001B
0011
FFF7
FFEC
FFF2
FFE9
0026
0011
0017
FFF6
FFE8
FFEF
FFE0
0010
000D
0001
FFE8
002B
0010
0013
0031
0001
002C
000F
0013
FFE2
FFE4
FFEE
FFF7
0007
FFF5
0008
FFD5
001C
0013
0021
0016
FFF3
FFF5
0011
FFE4
0022
0032
0004
0005
FFEE
000C
FFF9
FFE8
FFE6
FFD6
FFE7
FFF4
FFF0
FFD6
0002
0001
0012
0002
FFF5
FFE2
0014
001A
0006
FFD9
FFD9
0017
FFD9
FFF9
0019
0028
FFEB
001F
0021
FFE5
FFF4
FFFB
001B
001D
FFE7
0022
FFD4
FFE2
0019
0010
000B
0014
001F
0001
FFC7
0020
FFD6
0017
0019
0005
0023
FFED
001B
FFCA
0017
000A
FFF1
0001
000F
003D
FFCA
0029
FFEA
0035
FFFF
FFF7
FFF3
FFF8
0013
0002
0023
FFCE
0057
0000
0008
FFF2
FFF0
FFF5
FFD5
0017
0006
FFEC
000B
FFFC
FFE1
0017
001A
000D
001E
0023
FFDF
FFEA
0017
FFF1
FFE7
002D
0027
FFF6
0016
0004
0006
FFEB
FFF4
000D
FFF4
FFE7
0027
FFF2
FFDC
FFDD
0004
0021
0004
002E
FFF4
FFF6
FFEC
FFDE
0003
FFEC
0003
FFDF
FFF7
FFF5
0012
FFDC
0023
0016
001A
FFE3
0018
0013
0022
0018
002E
0000
FFF3
0020
0016
0024
FFF0
FFE5
FFE0
0006
FFFC
FFEC
FFE3
0017
FFFC
0013
FFF5
000B
001A
FFF4
FFF1
0019
FFE6
0018
FFDE
0016
0014
FFF9
0015
FFF8
0000
FFFA
0022
0010
FFE9
0023
FFE4
FFD6
0024
FFF5
0008
0006
FFFA
0025
0002
FFF6
FFE0
0020
FFDB
000E
FFFA
001A
000A
FFFC
FFE5
FFF5
FFED
FFEC
0012
0011
0003
0021
0005
FFCC
0029
000E
0020
000E
FFD4
FFF1
FFE8
0025
0026
FFF4
002A
FFCD
0008
000E
0002
FFF4
FFE3
FFFC
0002
001D
FFE4
FFFD
FFD6
FFDA
FFFB
FFF6
0011
0018
FFFB
FFF5
000F
FFDD
FFFF
0003
000B
0009
0025
002B
0031
FFF7
FFE3
FFF8
001C
0007
0015
0010
FFFC
000B
FFE4
FFF4
FFF8
FFDE
FFF9
000D
FFDE
FFFB
FFE8
0007
0017
FFE7
002C
FFEB
0007
FFEC
000F
FFDE
FFE6
FFD6
001B
FFD4
FFDD
FFD6
0000
0015
FFDD
FFCD
FFD7
FFE5
FFE5
FFFA
001E
0012
FFE0
FFF8
0023
000A
FFE8
004F
FFFE
0018
FFD0
002E
FFFC
0001
FFFA
FFDF
0004
0021
FFE9
FFDA
FFE1
0018
FFE7
FFF0
0020
FFFF
FFD8
0003
FFF8
0020
FFF2
FFF6
0017
0012
0015
FFDF
FFEF
002F
000B
FFD5
FFFA
0013
FFDE
0019
0007
0030
0012
FFF0
0021
002A
FFE7
FFD4
FFD6
FFEA
0028
FFFF
FFF0
0006
FFDE
FFF5
0003
FFE1
FFF2
FFF2
001C
FFFF
FFFC
FFD8
0009
FFED
FFF0
0007
FFE2
001F
0008
0028
001A
000A
FFF1
001C
000F
FFEF
FFE0
FFDC
0002
FFE6
0014
0022
000A
FFDC
FFC3
0007
000D
FFF2
FFFF
0009
FFF8
FFEC
0012
0024
001C
0004
002E
FFFF
0020
FFE1
0015
FFFE
000B
0014
FFDF
0010
FFF3
FFE8
0008
0000
0024
0021
FFE2
FFFC
FFDC
0020
FFDE
FFFC
0025
0018
001F
0010
FFE8
0020
002F
FFFC
0013
FFE5
0004
FFEA
FFD8
FFE5
0012
FFEB
0012
FFDF
001B
0016
FFFD
001C
0026
FFEA
0007
0009
0000
001D
FFE4
000C
0016
0002
0003
FFD0
FFF1
0003
000D
FFCD
FFF7
FFE4
FFE3
FFE4
001E
000C
0014
002C
002E
FFFC
FFEC
001D
0019
0004
0002
FFEB
0012
0006
0025
0025
0026
FFD5
FFF9
FFEA
FFFF
FFFD
0020
0010
0008
FFD3
FFE4
FFFD
0005
0005
FFEF
0013
0011
0012
001C
FFED
FFFF
FFDD
0030
002F
FFDB
0032
0007
FFDD
FFF5
0034
FFF3
FFFC
0022
FFE9
0023
001F
002B
FFF2
0018
002B
001B
0008
0014
0008
FFF3
000A
002A
0016
0004
FFDE
FFD2
0009
0010
FFE0
000C
FFE2
001E
0020
FFE3
0004
FFF6
0028
FFDF
FFD7
FFFB
0008
0003
FFDE
0005
0010
000B
FFFD
FFDD
0002
FFF0
FFEE
000F
FFF9
FFF2
FFFF
FFDD
0013
0022
FFD9
FFFA
0012
FFCE
0022
FFED
0026
FFD6
FFF5
0027
002F
FFE8
0000
0021
FFB7
FFEE
0019
FFFE
0014
0035
FFEA
0027
FFD8
FFDD
002C
0014
0028
0012
0020
0001
FFF3
FFE6
FFFA
FFF7
FFDE
0004
FFF8
FFF1
FFE5
FFFB
0015
FFE1
FFEA
0009
FFE1
0005
FFD7
0006
000F
FFFF
FFEC
FFE3
001B
001A
FFE1
0002
0028
0009
001B
FFEA
FFE6
FFFF
001C
FFED
FFE1
0012
0001
FFDB
FFE4
FFDD
001C
FFF1
FFE4
000D
0014
0012
FFE7
0010
FFF7
0004
FFD0
FFD6
002E
FFCB
FFE8
FFF6
0010
0014
0005
FFC9
FFE8
FFEC
FFE1
FFE0
FFD4
001A
FFE4
0001
FFE9
0013
FFEF
0021
FFDD
FFE6
FFDC
FFE8
001C
0027
FFFF
0010
002A
FFE1
FFFF
000C
0027
000B
000C
FFFE
FFF6
0006
000B
0008
0001
FFE9
FFF5
0014
FFE2
FFD9
FFD8
0021
FFED
FFDE
FFF7
0029
0006
FFDC
0006
0008
FFD9
0030
0023
FFE1
000C
FFD0
0019
FFF6
FFF6
0023
000D
0016
FFDD
FFE3
FFE3
0017
FFD5
000F
000D
0017
0016
FFE2
0002
FFF4
0033
FFE0
FFE5
0000
FFE0
FFD4
002A
0002
0025
FFED
001F
0001
FFE4
FFE3
FFE1
002E
FFEE
FFF0
0016
001C
FFE1
0010
FFFA
FFF5
FFDF
0006
0002
FFF1
001C
FFE4
0017
001C
0023
FFF1
0014
FFDE
FFE1
FFE5
FFDD
000F
0023
0004
0023
FFFB
0005
0014
FFDA
0030
0018
FFDA
0000
FFF7
0030
FFD5
FFDC
FFE3
FFEC
FFE5
FFF2
0023
0019
FFDD
0017
FFFC
FFDF
0024
FFE7
0000
0029
FFF2
0008
0017
0022
FFE1
0026
0017
0007
FFEF
FFDF
0007
0016
FFFE
0005
FFE1
001E
001A
0009
FFF9
0007
FFF5
0000
0015
FFF6
0008
000F
FFEA
FFFD
000C
FFF6
0006
0009
FFEA
FFF6
FFED
FFF4
0017
0009
0008
FFF6
FFF1
FFF2
0013
FFF2
001E
FFEC
0005
000F
001C
FFF5
0017
000F
000D
0029
0012
FFDB
0008
FFEF
0013
FFD6
FFF4
0024
0007
0005
FFF2
0009
0017
0015
FFD6
FFCF
0025
0022
0020
FFE4
002E
0012
0025
000A
0028
FFF3
0017
0023
FFCE
FFE7
0013
FFE1
FFE2
0001
0008
FFF9
0021
FFF1
FFE2
FFF5
0011
0013
0022
FFF1
FFD5
0000
FFE6
FFF7
001A
0036
0007
000A
FFFF
FFDF
0013
0018
FFF2
FFE0
FFE8
0002
0013
0001
001F
0016
FFEF
FFF3
002E
002F
0006
FFF2
0004
FFFD
0001
0009
FFE2
001A
0032
FFF0
FFCF
FFE6
0038
0014
0010
FFDE
FFE4
FFF7
0011
FFE5
0006
0036
0034
001D
001F
FFDD
0032
FFD5
0049
000A
FFD6
0017
FFE9
0022
FFF1
0021
FFE6
0011
FFEF
FFFB
FFD6
FFEF
0017
0013
FFF3
0029
0007
0009
0016
0014
0018
0000
0015
0008
001D
0008
0006
FFF7
0021
0007
FFDF
0021
FFDA
0003
FFF3
FFE1
001C
FFF4
0023
FFFE
FFF3
0018
0007
002A
FFDD
0023
FFF5
0022
FFDA
0002
FFCF
001E
0005
0028
002A
001D
0023
0014
FFF4
000E
FFFD
000A
0030
0010
FFD4
FFED
FFDC
0031
FFCF
000D
