FFFB
FFE7
FFEA
0001
FFE6
002A
FFF2
0004
0001
0008
FFE8
FFF9
FFEE
FFFD
FFD8
0004
0008
0005
0007
FFF1
FFDF
FFF3
000B
FFF5
FFE2
001B
FFF5
FFF3
FFF1
FFF8
FFFA
FFE3
FFF2
0018
FFFD
FFFB
0023
FFFB
FFFE
0015
0001
0011
0003
0013
0019
002C
0002
FFFB
FFE0
FFEC
FFE1
0012
0021
0010
0011
FFFA
0005
0008
001F
000A
0018
FFF3
FFEC
000D
0021
FFF6
0023
FFE9
FFE1
FFF4
FFE6
FFFD
FFEB
0007
FFD9
0006
0004
FFD9
FFF6
0028
0001
0009
FFFF
000F
0023
FFE8
000F
FFF1
0002
FFE2
001E
FFF3
FFE0
FFEE
FFE1
FFFE
FFF2
001A
000E
FFF4
0020
0014
0005
0000
001F
0017
FFED
0017
FFE7
FFED
0010
FFE1
0000
FFE1
FFFF
000F
FFF7
001C
FFEA
FFFF
FFE6
FFFF
0008
FFEE
FFDF
FFF2
0000
0014
0008
FFE4
0026
FFF0
0009
FFF8
0016
0006
0012
000B
FFF0
0011
FFEE
0011
0013
FFF8
FFDD
FFF6
0019
0000
FFFD
FFDD
FFE4
FFE5
FFFF
FFFD
0015
0018
FFD8
FFEA
FFEF
0004
0008
0002
FFE1
0008
FFF0
0000
FFF7
0006
0024
FFE6
0012
0001
FFED
FFE5
FFF5
FFF5
0027
0020
FFE6
000C
FFEA
FFF4
001A
FFFA
FFFC
FFFA
FFF8
FFFE
0008
FFF0
FFF5
0004
0026
FFFE
FFEE
FFED
FFF5
FFEB
0020
FFFB
FFF1
FFEF
FFE6
000B
000E
0009
0012
FFD9
FFDC
000C
0011
FFE3
FFDB
0011
FFF1
FFE3
0017
FFFF
FFFF
FFFC
0009
FFF0
0013
FFF0
0007
FFEE
FFE9
0000
0005
0000
0019
0006
0008
FFF3
0003
0002
001A
001B
0001
FFDD
FFFA
0016
0017
0005
FFE3
0017
FFE8
0005
000D
0012
FFE5
001E
FFFD
FFE9
FFE1
FFFD
0018
FFEA
FFE8
FFEA
FFDD
001D
FFF1
0024
FFF5
FFFD
FFDF
FFF8
FFEA
0018
0020
FFF5
000F
000E
000C
0003
FFFF
FFE9
FFEE
FFE2
0008
0012
FFEB
000D
FFE5
FFFD
FFFB
000E
0002
001B
FFED
FFE8
0004
FFFF
0016
0019
FFF7
0010
0020
0023
0015
FFF2
0000
FFD8
0012
0025
FFE7
0009
FFE2
FFF3
0008
0003
FFED
FFFD
FFEF
0018
FFED
001B
002B
0007
000F
FFE6
0002
0014
001F
FFED
FFEB
0008
000B
FFF2
FFEB
FFE6
FFE8
0004
0005
000B
FFFE
FFE1
000B
FFFE
001B
0000
FFF3
FFEB
FFFC
FFE3
FFFC
FFEA
FFEA
001D
001B
FFF7
0018
001C
0004
0001
000A
000E
FFF2
FFEF
FFFA
FFEB
0006
000B
FFFD
0002
FFF3
FFE7
0025
0008
001B
0015
001B
001A
FFF5
0013
FFEB
FFED
0007
000C
FFE8
FFF2
0013
0004
FFF3
FFEB
FFF4
FFF8
0020
FFF1
FFF3
FFFE
FFF1
FFFE
FFEB
0001
FFF4
0007
0008
FFF8
0014
0016
001F
FFEF
0002
FFE7
0011
0005
001B
FFFA
0010
FFE8
FFE5
FFE0
001E
FFE1
FFE3
FFDD
0021
FFF5
FFD2
000A
0004
FFEA
FFFB
FFEA
0005
0000
000E
FFE6
FFE1
0002
000E
FFFA
FFDA
FFE7
FFF2
FFF2
FFE3
0014
0012
FFE2
0010
FFE5
001D
0013
0002
FFF6
0019
0010
000E
FFE3
0011
FFFE
FFED
FFE7
001E
FFE3
FFDF
FFE3
FFEF
0011
FFFC
FFE9
0009
000E
0013
FFE5
FFD8
0015
FFF9
001F
FFF8
0014
FFEC
FFFC
000B
001F
FFEC
0015
001C
0028
000E
FFDE
FFFD
FFE2
FFE0
001D
0039
0025
0003
0023
000C
0009
FFF3
0027
001F
FFFA
0007
000E
FFE5
001D
FFCE
0015
000C
FFD9
FFE7
FFE3
FFF4
0013
000D
FFF1
FFEE
0000
000B
FFF2
0004
FFDA
FFFD
0033
0029
0029
000F
0014
FFE6
FFEC
0016
FFF4
0014
FFF6
FFEF
FFDE
001F
0014
000D
0029
FFEE
0009
FFF9
0026
FFFC
FFF1
FFFF
FFF5
0010
0014
FFF2
0019
FFF9
0002
FFE4
001B
FFFF
FFD9
000D
0010
000A
0011
FFFB
FFE9
FFE9
FFF1
FFF4
000A
000C
FFE3
FFDF
FFF7
0015
FFEA
FFF9
001D
000C
FFE3
000D
FFF3
000F
0004
FFDE
000B
000A
FFF1
FFF7
FFDD
FFEE
FFE7
0014
FFF5
0004
FFF9
0012
FFF8
FFDF
0027
0016
0005
0017
000C
0013
FFFE
001D
0016
0016
0021
000A
FFF2
FFE7
FFE1
FFE8
FFF4
0006
000B
0019
000D
0024
0006
FFE8
000C
FFEB
000E
FFEE
FFF1
FFE2
FFE2
0003
FFEC
0018
FFFB
FFF8
FFF2
0001
FFF4
FFF4
FFEE
0023
001B
FFDA
0023
0021
FFE4
000B
FFF1
FFFB
FFEA
FFFA
FFE4
0010
FFF4
0002
001F
FFE2
000F
0019
FFFA
FFE1
FFE7
FFF6
0009
0016
FFE7
0021
0015
0003
000A
001C
FFE6
FFE7
FFF1
0013
FFFA
FFED
0009
FFE7
FFF4
FFFA
FFEF
0007
0000
001B
0014
001F
0004
0006
0018
FFFB
FFF5
000A
FFFF
FFED
0007
FFF7
FFEF
001B
FFFF
000D
000E
0015
FFF2
0002
0019
000A
0017
FFF2
000A
FFFA
0004
FFF6
0018
0012
FFF7
FFF4
0008
0003
FFEB
FFED
0013
FFE6
0008
0004
FFDE
0000
FFF1
0003
0017
0018
0023
000B
FFE5
FFE3
FFE2
000C
FFF9
0014
001F
FFF9
FFE2
FFF9
FFEC
0006
000B
0019
0025
FFF7
0015
FFF1
FFDC
0001
001E
0017
001A
FFD8
0006
0012
0026
000A
FFE8
FFEB
FFD8
0004
000E
000B
FFEF
0024
FFF2
FFF6
0023
0010
FFF6
001C
FFFE
0025
001D
0016
002D
001B
FFF4
FFED
0007
FFE8
FFF1
FFE4
001C
000A
FFFC
FFED
000F
000C
001C
FFFD
FFE7
FFEC
0019
FFEA
0015
FFFD
FFFC
0003
FFDF
FFE6
FFE3
000E
0019
0008
000A
000F
001A
FFF4
FFE1
FFEB
0019
FFE5
FFE6
FFFB
FFFE
0028
0025
FFEB
FFF5
FFDC
0011
FFFF
FFE4
0008
000C
FFE7
0004
0005
FFED
FFE8
FFFA
0004
000A
0000
FFF4
FFF1
FFE3
FFE9
0019
0002
0027
0007
000F
0004
FFEF
FFFF
FFF2
0003
0013
FFF5
FFED
0006
FFF3
FFFD
FFF8
FFF0
FFE2
FFF4
0013
0027
FFDC
FFF9
FFF8
FFFD
FFFB
000E
001F
FFE1
FFE2
0015
FFE4
FFF2
FFE3
FFE7
000B
FFF7
FFE3
0006
FFF9
FFE8
0014
FFEA
FFFA
001A
FFE7
FFEA
FFF2
FFF9
FFE6
0002
000C
FFF0
FFF7
FFF6
0007
0014
0018
001F
0020
FFFB
0010
FFDC
0019
0007
FFDC
FFE8
FFFA
FFE7
0003
FFEA
FFF3
FFF9
FFFA
0009
FFE1
0009
FFD6
001A
FFFE
0000
0006
0013
FFE9
0019
FFE7
000F
0000
0001
001A
FFF1
0021
000C
FFFE
FFFB
0025
FFE7
001E
FFDF
0020
FFE9
FFEF
001A
0012
0000
0020
0028
0011
0004
FFFE
FFEC
FFEA
FFEC
0005
0016
0016
0010
FFDE
001D
0002
0012
0008
000C
FFDE
FFE0
FFFB
FFDB
0023
000A
FFE5
0003
000E
0003
FFF6
FFF0
000E
FFE1
0011
0028
FFE1
000D
0002
0017
FFE4
0007
FFFF
0022
FFFC
0025
FFE4
001B
000E
FFFE
FFF8
0013
0002
FFE5
FFF1
000E
0007
0003
0002
FFF1
FFDE
FFEC
001F
FFFA
FFFE
FFF7
0006
000B
0027
0003
FFFC
0014
FFE5
0028
FFDF
000B
0016
FFDF
001A
FFEB
0005
FFEC
0007
FFFD
0026
FFDC
FFFA
000E
0015
FFFA
FFF4
FFDA
001F
FFE9
FFF9
FFEA
0010
000F
0005
0018
0005
FFF7
0007
0017
FFF7
000C
0018
0022
0008
FFD6
0029
FFEC
0018
FFEC
FFE7
FFDA
0022
0019
FFF6
FFDA
0022
FFFD
0011
000A
FFE9
0025
0010
0010
001E
FFEC
0005
FFE7
0006
000D
0000
FFE9
0009
0018
0022
FFF3
0019
0013
FFF7
0005
0020
FFF6
0012
FFE0
000D
FFED
0007
FFF8
0003
FFFD
FFF5
0006
FFE5
0012
0017
FFD7
0020
0020
FFEC
0010
0005
FFEE
FFEE
0012
000C
0020
FFED
FFE7
001C
FFF7
001B
FFF2
FFF5
FFE9
FFF2
FFF5
0009
0013
FFDF
FFED
0010
0022
FFE4
0005
FFDE
FFEF
FFF6
0024
FFFF
FFE2
0006
FFF2
000B
000D
FFFF
FFFD
0018
FFF8
0010
FFE2
FFF9
FFFA
FFE4
FFF5
000F
FFEC
0025
0000
001D
000E
FFEF
0003
0005
FFDE
FFFE
0020
0011
FFE5
FFFF
0020
001A
FFF6
FFDD
FFF3
FFD9
001A
0017
FFDA
FFEA
0008
0008
0022
FFF3
FFEF
FFF3
FFE1
FFFC
FFFF
FFFD
0020
FFDE
FFE8
001D
0014
FFEB
000F
FFE5
FFF7
001E
000C
FFF7
FFF5
FFE4
FFEC
001A
0013
0006
FFE9
FFFC
0007
FFEB
FFEA
FFEA
000D
FFF6
FFDB
000E
001A
FFDB
FFF9
000F
FFF4
0023
FFF1
0017
FFF5
FFF0
FFE5
001E
0027
0004
0022
FFE6
FFD8
0009
FFE2
FFE8
FFE3
0007
0018
0015
FFE8
001B
0019
FFEB
FFE6
0011
FFEC
000D
FFF7
FFF1
0016
001D
0003
000F
FFE3
FFE8
FFE3
000A
FFFF
FFF0
0020
0022
FFE1
0016
0003
0017
001F
000F
FFD8
FFF3
0000
0003
FFFA
FFE6
0022
FFF7
0005
0016
FFF7
0020
0021
0010
FFE5
0018
FFE0
FFF8
0016
FFF5
000B
FFEB
FFED
001D
000F
0004
0012
FFD9
FFE3
001E
FFE3
0013
FFD8
FFEA
000E
0026
FFED
000E
FFF5
FFE9
FFFB
FFFE
001A
FFEE
001A
001E
0026
0019
FFE0
002B
FFE7
0017
0007
002B
001A
FFE8
FFF8
0003
001B
0001
0001
FFDE
0012
FFEF
FFDE
FFFD
FFED
FFFE
000D
FFF9
FFF9
000A
0008
FFEE
FFFA
FFE8
0025
0006
FFF9
FFED
000F
0017
0012
FFE5
FFED
FFF1
000B
FFF1
FFFB
0010
000B
001C
FFD5
0020
0012
FFFF
FFD7
001C
FFFA
001B
FFE2
0002
000D
FFF1
001F
FFDC
0012
FFDA
FFF2
FFF9
FFE2
FFEF
000F
FFEA
0013
FFF7
FFF0
FFF3
0005
0003
0016
FFEC
0006
FFF5
FFF5
0013
0006
FFF5
FFFD
0024
0012
0026
FFED
FFEE
FFDE
0013
FFEF
0023
0017
0018
FFFB
002C
0026
FFE3
0012
0015
0012
FFE4
0015
0006
FFFF
FFF2
FFE6
0009
0007
FFEF
FFDB
001E
FFF3
FFFF
FFE8
0025
FFF0
FFD7
FFEC
FFE7
000D
FFE0
FFF2
0026
002A
0037
001D
0016
FFFF
0023
FFFF
0001
FFDB
0017
001C
0004
0025
FFDF
002E
FFFC
0008
002C
FFF6
FFEA
FFF9
0002
FFE3
FFF7
FFCA
FFF8
0019
000C
0007
000D
FFE4
FFF1
0000
0005
0019
001C
FFF3
0018
000C
0005
0004
FFE5
FFEA
FFDC
FFF8
0016
0004
0009
FFEB
000A
0000
FFDE
0009
0015
0024
0019
FFE1
FFEA
0001
000A
0020
FFDC
FFED
FFEF
FFEA
0014
000D
0018
0013
FFFF
FFF2
001F
FFE9
0012
FFDC
FFF8
FFDD
FFE9
FFF4
FFE4
0011
FFEB
FFFB
FFE0
001E
FFF1
0008
0007
0003
FFE4
000E
0022
0004
FFE5
0002
0012
0018
FFE9
FFE6
0017
0015
FFF6
0010
000D
FFE4
FFF2
0002
FFE4
FFF2
0005
0016
0000
0010
0018
000C
FFF4
FFF8
0018
FFEF
0009
0000
001E
FFF6
0021
FFF4
FFFD
FFFD
FFE3
FFE3
001F
FFE9
0009
0020
FFE9
FFE4
FFF8
001D
0014
0014
FFF3
0022
FFE9
0005
FFED
0024
001B
FFF9
0015
FFDA
0014
0011
FFE6
0018
0001
FFEB
0025
001D
FFF3
0028
001F
000D
FFDF
FFE9
0023
000F
FFE2
FFF9
0012
FFF3
0008
FFE7
FFED
0022
0019
0027
0016
FFF5
FFEF
FFE3
0008
FFF5
FFF8
0000
0000
FFF1
FFE3
0015
0006
0029
000C
FFF8
0012
FFFC
0017
FFEA
FFF6
FFED
001F
000A
0007
FFF2
0012
0012
FFE4
000C
FFE0
FFF8
000C
0021
FFE4
0013
0000
0005
0008
FFF5
FFFE
000C
FFE7
FFFA
FFDA
FFF6
0024
001E
001A
0010
FFEF
FFFD
FFE6
FFF4
0015
FFE5
000E
0005
FFDD
000A
0014
FFEE
0008
0006
0026
FFEC
0008
FFF0
0002
0006
0021
001D
FFED
0009
0005
0005
0022
0001
0009
FFE9
0009
FFE2
0000
0004
0025
FFEA
FFF5
0015
0007
001F
FFE7
001A
0002
FFE4
FFE4
0015
FFF8
FFF5
0003
001E
000F
0021
0008
FFEA
000F
FFE2
0011
FFF3
0012
FFEC
0003
0016
FFE3
0010
FFDD
0004
001D
FFEF
0012
FFFB
001D
FFED
0008
FFE6
FFDD
FFE5
FFEE
FFE7
0001
000F
0015
001C
FFF1
FFF0
FFDF
FFEE
FFFD
0014
FFF6
0012
000A
000B
FFE2
000D
FFFD
FFEA
FFE4
FFF7
0011
FFE3
FFE5
FFE8
0011
0003
FFE4
001C
FFFC
FFEC
0019
0009
FFF1
FFF7
0006
FFE3
FFFC
0016
FFE8
0003
000B
FFEF
0014
FFEC
FFFB
0019
FFFE
001E
000C
FFFC
FFEF
0009
0005
0006
FFE6
0004
FFF4
FFDD
0001
FFE7
0003
FFE1
0005
0017
FFEB
000D
FFF9
FFFF
FFF4
000B
FFF0
FFDE
0026
FFFF
FFE6
FFEC
FFF6
FFDD
FFEC
0024
FFF3
0021
001A
001D
0014
0007
0025
FFE6
0000
0009
0008
0006
FFF1
