FFEC
FFEF
FFCE
FFE9
FFE0
000A
001F
0020
001C
FFF0
FFFC
FFFC
0000
000A
FFD5
002A
001F
0010
0031
0008
001F
001C
0015
0006
0000
FFFF
001B
0011
FFD8
FFFC
FFF7
FFFB
0016
FFEF
0016
FFD1
0017
FFF5
0019
002C
FFE7
FFF6
FFE1
FFDC
FFFE
FFFB
FFE0
0027
0030
FFCD
FFFF
000D
FFD1
000E
0003
FFF6
0029
000D
FFFC
FFF3
FFD4
0011
002B
001B
0015
FFD7
0019
0029
002B
FFE2
0015
001C
0000
FFCD
0021
FFEE
FFE4
001B
FFFB
000D
FFF8
0000
FFF4
FFF3
0005
0017
0014
0030
FFD6
0005
0010
FFEB
FFE1
FFFB
0000
FFEE
FFF0
FFFB
000A
FFD0
0008
FFF3
FFF5
FFDA
0021
FFF7
FFDC
0021
FFE8
001A
FFE9
FFD9
FFD2
0027
002F
FFDA
FFD0
0025
0007
0014
FFE5
0000
0000
FFD3
FFF8
0022
FFF1
FFDD
002C
FFF8
FFEA
0019
0013
0022
0034
0027
FFFA
0014
0007
FFEE
000B
FFFA
0029
FFEA
0012
000B
000F
0005
0001
0004
0018
0020
001B
0012
FFE1
0029
0018
FFFF
001A
FFDF
FFF9
0016
0006
FFED
FFEB
FFF3
FFFF
FFED
FFD8
002A
FFD6
0002
FFEE
0011
001E
002B
0003
FFE5
FFE6
001B
002D
FFFF
FFD2
0012
FFE5
FFF8
FFF7
0018
0008
0019
FFED
FFED
0016
FFEC
FFF0
0001
FFFC
0002
000F
0004
0015
FFDB
0024
FFD5
FFDB
FFFC
0006
FFFA
FFE4
FFEF
002D
0018
FFEE
0032
FFD8
0019
000E
0019
000B
0010
FFDD
002A
FFF4
FFE9
001D
FFFA
FFEB
0002
FFD7
FFF5
0024
FFFD
FFFE
FFE3
0010
FFED
0028
FFF2
FFDF
000E
FFF4
FFD6
0001
FFEE
FFEF
0008
FFE3
FFD1
0026
FFDB
0011
0033
FFEF
0000
0001
000D
0010
FFEE
FFFE
0006
0015
0021
0022
FFD6
FFF9
FFF2
FFF5
FFFA
0022
FFF8
001F
0025
000A
FFDA
0029
FFF3
FFD8
002E
0029
FFED
FFEC
FFFD
001D
FFE0
0027
FFD9
FFD8
FFEA
002C
FFD5
000E
0002
FFF7
001F
0007
FFD0
0025
000C
000A
FFF7
0011
FFD5
0009
FFD7
0021
FFED
FFDA
FFF1
FFF7
FFF2
001A
0001
FFFE
0024
0023
0004
001B
000B
FFE6
0007
001D
0015
001A
001A
0029
0006
0009
001D
FFE9
FFEA
0016
FFFE
FFF2
002E
FFF0
0006
0034
FFE0
002B
FFFA
FFE0
FFEB
FFE7
FFD7
0011
0007
0000
0015
000C
FFDF
000F
FFE0
0008
FFEE
FFEB
001E
FFE9
0007
0010
0016
0019
FFEC
FFF0
002E
0019
FFDA
000F
0007
FFE9
FFD8
FFF1
0012
FFED
FFD5
0007
0008
0015
FFF0
0001
FFE0
002C
FFF4
0005
0027
0007
0029
FFEF
0000
0009
000F
0015
FFF2
000C
0004
FFF9
0015
FFD7
FFE6
000A
0013
0024
001C
001D
FFE7
FFE2
FFF5
0012
0019
000F
FFFF
0007
002B
001B
001F
0011
FFCE
0022
0012
FFCD
FFF5
FFDF
FFDA
FFFC
002A
001E
0029
FFD6
0028
0017
0019
FFFB
0030
002B
0007
0017
0014
0000
0003
FFE0
0017
FFE3
0018
FFE5
001E
0026
FFE2
0009
0019
0010
FFE1
001F
0009
FFDF
FFF9
0015
0014
0006
001C
0028
001C
FFFD
FFED
FFD3
000F
FFE6
0002
FFF5
FFE2
FFFE
002A
FFE2
0008
FFEB
FFE6
000C
FFE3
FFDA
FFEE
0023
001D
FFF2
FFFB
FFD4
0008
0027
0028
0002
0022
000B
FFF8
FFF1
FFFC
0002
FFE1
0007
FFF5
FFF4
FFFF
001B
FFEC
FFF3
000A
002C
FFEE
FFFB
0006
002B
FFD8
0005
FFD1
0004
000F
0001
FFF1
FFE5
FFE9
FFE6
FFDF
FFFD
001F
FFF4
FFEF
FFD3
FFF6
002D
0020
FFF2
000C
FFE5
FFDD
0022
FFE1
0014
FFE6
0013
FFE8
FFD3
0000
FFE7
0010
FFDE
000F
FFEE
000B
0032
FFED
FFD3
FFFF
FFF2
FFF1
000E
FFF8
001E
0007
0008
FFF9
FFE8
FFED
FFF9
FFF2
FFE2
0026
FFE7
0011
FFEE
0029
000C
0006
0011
0011
FFDF
001F
0001
FFE6
FFEB
0010
FFCF
FFF0
0002
FFD7
000F
002C
FFE2
001F
FFE6
0000
000B
FFF7
0007
FFF7
0017
FFFD
0007
FFE1
0016
0006
FFEA
FFE2
0006
0008
FFF1
001B
FFDE
FFF0
0007
FFFA
0012
002C
0015
0013
0027
002A
FFF8
0013
FFE0
FFE6
000A
FFEB
FFFA
0018
FFD1
002A
0026
0011
000A
FFEB
FFFE
FFD3
0018
0016
0004
FFD4
FFE3
0000
FFEB
0004
FFF1
0013
0007
FFE4
FFDF
0021
001F
FFE8
0026
001B
FFD9
FFF7
0021
0023
FFFC
0026
0020
FFF7
0028
0028
FFFB
0021
FFCC
0018
0029
0009
0026
FFF6
FFEF
0026
FFE1
0000
FFE2
FFE4
FFD5
000B
0018
FFEF
0003
001B
000C
FFE8
0002
000B
FFF4
FFD9
FFFB
000D
FFEE
FFEF
0029
001C
FFEB
0001
FFEB
FFDA
0009
0024
FFDA
FFF4
0002
000F
0005
FFFD
0023
FFF1
FFEF
0025
FFFB
0013
0002
FFEF
FFCC
FFDE
0025
FFEF
FFF1
FFE7
0008
000E
0009
FFF5
FFFB
0010
001B
0012
FFD4
0014
0008
0011
001E
FFF8
FFED
0017
FFE6
0002
FFE5
FFE2
000D
FFEF
FFFE
FFDF
FFE2
FFEB
FFEF
0009
0003
0008
FFD5
FFEA
001E
FFFF
FFE8
FFF6
0027
FFE1
0007
FFEF
FFEA
FFDE
FFF6
0012
FFE5
0002
FFEA
FFEA
FFE6
0002
FFEF
FFD2
0003
FFF3
FFE5
0028
FFE9
FFFA
FFD6
0024
FFDF
0001
0026
FFED
FFEA
000A
0023
000E
FFFA
0004
FFF7
FFEC
FFE1
FFCC
0021
0008
0009
FFFC
FFFF
FFF4
001D
0014
000C
FFEB
0013
002C
0030
0005
FFF2
FFF3
FFF6
0012
FFF0
FFD4
0029
FFF2
0000
0000
FFE1
0007
FFDF
0000
000E
FFF0
0007
002C
