FFF1
FFF2
FFE1
0010
0006
FFF1
0019
0005
FFFA
0000
FFF5
0003
FFEF
0006
0014
0004
FFEE
FFF7
0021
0007
FFEB
000D
0003
FFEF
FFE5
FFE7
000E
001A
0021
FFE8
FFE8
FFE8
FFF2
FFE8
FFFC
FFE8
FFF7
0016
FFEF
FFED
0006
FFE8
0014
FFE4
FFF9
0008
0000
0009
0016
FFF6
0015
FFEA
0010
FFEE
002B
000B
FFE6
FFE9
FFEE
FFF4
FFFC
000A
FFFD
001C
FFFC
FFFE
FFF7
FFE6
0010
FFE4
FFE7
0010
FFDE
0006
FFFF
FFF7
0005
FFFC
FFF7
FFF1
FFF9
0024
0024
FFFF
001F
0014
0024
0000
FFFE
001A
0006
0001
FFFA
0018
FFFC
FFF7
FFFB
FFF4
0008
FFF0
FFF6
0000
0004
FFE4
FFE4
0008
FFF0
FFF1
0015
FFFB
0008
0016
000F
0003
FFE3
0012
0006
FFFC
FFE5
FFEB
FFE9
0013
FFF4
FFF3
FFEF
FFF0
FFE8
FFEA
FFFC
FFF7
FFFB
FFEC
FFFE
FFEB
0011
0004
FFE8
FFF6
0015
000D
0012
FFF7
0007
FFFB
FFF6
FFF8
FFEB
000D
FFFF
000A
FFFA
FFF4
FFEF
0019
FFF4
000B
FFFA
0019
0018
FFF9
FFF5
0006
FFE3
000E
FFF7
0018
0013
0003
FFFE
FFF5
FFF7
0013
FFFF
0003
0006
000E
FFF5
FFF1
0003
000D
FFE6
0010
FFE9
0005
0003
FFE5
FFF0
FFE6
0009
FFF3
000E
000F
FFF7
0009
0003
0012
FFF2
FFF2
FFF7
0003
000D
FFEE
000E
000C
FFEA
0005
FFF4
FFEC
FFE9
000F
0005
FFE9
0008
FFF3
FFF8
FFE6
000A
0001
FFE6
FFF0
FFF9
000D
0010
0016
000A
0006
FFEA
FFE7
0005
FFF0
001D
0006
0005
FFEE
FFEC
FFFE
0011
000E
0008
0001
FFF8
000A
FFE3
FFF3
FFE3
0003
FFED
000E
0008
0003
FFEC
FFE7
FFFF
0012
0001
FFEE
0019
FFF0
FFFB
FFF1
0005
FFFD
FFE9
FFE4
000C
000D
0003
000B
FFFF
0000
001C
0001
0001
FFF4
FFF5
FFF0
0011
0007
000A
000A
FFF0
0005
FFFC
FFE6
FFF0
0001
0017
FFFA
FFEE
000A
0015
0008
FFE0
0009
0015
0012
0002
000B
000D
FFEA
FFF9
0009
FFFF
FFF0
0017
FFEB
0003
FFEA
000B
FFDF
FFE4
0011
001F
FFF7
FFEE
FFE9
0018
000F
FFE3
FFF3
0006
0019
FFF4
FFF1
FFF1
FFFA
001C
FFEF
000C
0004
001B
FFF0
FFFB
000D
0010
FFF4
FFF6
FFDE
001A
FFF3
0017
FFF3
FFFB
0007
0005
FFF0
FFDE
0010
FFF1
FFFD
FFF7
FFFC
FFF2
0013
000A
FFE6
FFFD
0002
0008
000C
FFFE
FFE8
FFF2
0005
FFF6
FFF0
0005
0001
0004
0009
FFF4
0008
FFE9
FFE4
FFED
001F
FFFC
0018
001B
000F
000A
FFFD
FFF9
FFEE
000B
000F
0006
001C
000E
0008
FFF1
FFE5
0003
0005
000B
0015
FFE8
0006
000D
FFFB
FFE6
0007
0009
000D
000D
001B
0012
FFFF
FFF9
FFE9
FFF4
0000
FFFD
000A
FFFD
0015
0009
FFEF
FFEE
FFFE
0019
FFFE
0016
000D
FFF2
0000
FFF0
FFF9
FFE2
FFF7
FFEF
FFFC
FFF4
FFF7
000C
FFEA
0009
FFDF
FFEF
FFE0
FFF2
0002
000D
FFE9
0006
FFDE
000E
FFF7
0006
000E
001A
FFF9
FFFB
FFF6
000A
0002
0011
FFDA
FFF9
FFEE
FFEE
000C
FFF8
FFF3
FFEA
FFF3
FFE7
FFFE
0007
0010
FFFD
0014
FFE5
0022
001E
FFFA
000A
FFF3
FFF7
001E
FFE9
FFF3
001B
FFF4
FFE8
000D
FFF0
FFFF
FFDF
FFFA
FFED
FFF9
FFF1
FFF7
FFFE
0010
FFF8
FFEC
FFF4
0017
0006
0011
0019
0018
FFF3
FFF1
0006
FFED
0017
FFEB
0011
0010
FFE7
FFE8
FFE1
0029
FFF7
FFE8
0001
0021
000A
000A
000B
0013
FFFA
0003
FFF0
0003
0015
FFF8
0004
001F
0015
0000
FFF3
FFF0
0001
FFEC
FFFA
0011
FFF4
FFD6
FFE8
0001
FFF8
0011
FFFA
0008
FFF2
FFFE
000C
FFFB
000F
0010
FFF8
0007
000F
0020
FFF8
000B
FFF9
0013
0012
0001
FFF5
FFE9
FFEA
0013
FFF4
0004
FFF9
0016
0008
0001
FFE9
FFF2
FFF3
FFF0
000D
FFEA
FFFF
FFFE
0002
FFE6
FFEC
000F
0015
001A
001B
FFED
FFFF
FFE4
FFEE
0019
0006
000F
0017
FFED
FFE7
FFF8
FFFA
FFE4
FFF6
001D
0008
0011
000F
001B
0012
FFED
FFEB
FFF2
001D
0010
FFF7
FFFF
FFF7
FFED
000D
FFDA
0008
FFE9
FFF8
0012
0000
FFEC
000F
FFE2
FFE4
FFFC
0008
0019
0000
FFE8
0002
0011
0009
000C
FFEF
FFEB
0001
0010
0015
0004
000D
0009
0009
0005
FFF3
FFF2
000A
0005
FFEB
FFFE
FFEB
0012
FFED
001A
0002
FFF4
0002
0007
0011
FFE2
FFE3
FFF6
FFFF
0015
000A
FFF1
FFE9
FFE7
FFEE
FFF0
FFE0
FFE8
0009
0005
FFEA
FFEA
0019
FFE2
FFEA
FFE0
000F
FFF3
001A
FFED
0007
FFFB
FFEB
FFF1
FFFA
FFF8
0013
001A
000F
FFE2
FFF0
0012
FFFB
0006
0006
FFFD
FFEB
0018
FFF6
FFF9
FFEF
FFE8
000F
FFF1
0008
0007
FFEC
FFFB
FFF6
0005
FFFE
FFF5
FFE6
000C
0007
0000
FFFA
FFF0
000A
FFFD
FFEC
FFFE
FFE8
0009
FFF2
FFFE
0006
0011
FFFE
0021
0002
FFDD
FFFA
FFFA
FFEE
FFE6
FFFA
0001
0018
0014
0005
001B
0002
0014
FFF0
0008
0011
0014
FFF3
000D
0004
FFFE
FFFA
FFF1
0005
0013
FFF5
0007
000C
0004
000A
FFF9
0002
FFE7
0008
0002
000D
FFFC
FFFB
0007
0005
000D
0019
0016
0015
0002
FFFA
0009
000E
FFF3
0003
FFED
FFF6
0024
FFF5
0002
FFE9
FFF0
0011
0018
0014
FFFC
000F
0001
FFE9
0005
FFEC
FFF8
FFEE
FFFC
0008
0024
FFF2
FFF6
0012
FFF3
0014
000C
FFF2
0006
FFF4
0000
FFEE
FFF1
0003
FFF4
FFF8
001C
FFF6
0005
001E
FFF1
0004
FFF8
000B
0004
001F
0007
0009
001F
0006
0014
0023
000F
0000
FFE9
FFF7
001B
0005
000E
0007
FFF6
0014
FFFD
FFED
000B
0009
0000
0003
000B
0002
FFF9
FFE4
FFE8
FFFA
FFF0
0013
0010
FFFA
000A
FFE8
0007
FFE9
0013
FFFE
FFEC
000A
FFF0
001B
0017
FFF5
000F
000D
FFED
FFF1
001E
0007
0013
0020
000E
FFED
FFE7
0007
000A
001F
0004
000A
0014
0012
FFE9
FFFC
FFFF
0005
FFF8
001A
0000
000B
FFDB
0012
0011
FFFB
FFFB
FFE5
000A
FFEC
FFF9
FFE6
0016
FFE9
FFFB
001A
0015
0017
0008
FFF8
000C
FFF9
000F
0011
000D
0020
001C
FFEC
0011
FFE8
001C
0009
FFF5
000C
0009
FFF9
FFF2
FFFA
000F
001A
0003
FFF3
FFF5
0000
FFEF
0014
000C
FFE5
0008
0012
0012
FFFB
0018
0003
FFEE
000C
000D
FFE9
0011
FFE9
FFE8
0025
FFF7
0011
0003
FFF8
FFFF
FFF2
FFF6
FFED
001E
001D
0005
000E
0007
0010
0012
FFF3
000C
0015
0000
FFF3
FFF0
000D
FFFE
000A
0002
0005
0020
FFF4
FFEC
FFE8
FFEA
0021
0002
001F
0011
FFFD
FFF5
0005
FFFF
0001
FFEB
FFF6
0002
FFED
0001
0005
FFFF
FFEE
FFF0
FFF5
0005
000B
000C
001D
FFF2
0005
0012
FFFA
FFEA
FFF4
FFE3
0010
0004
FFEC
0002
0014
FFEF
FFEF
FFF2
0006
000E
FFF4
FFF8
0010
FFEB
0011
FFF3
FFEF
FFEB
0014
FFF1
0004
FFEA
000A
0000
0008
0010
FFFB
FFFF
FFFC
FFE1
FFE0
FFE8
0028
0016
001A
FFF7
0016
FFED
FFED
0002
0019
0008
FFF6
0000
FFFF
FFF3
FFEE
0002
FFFB
FFFB
FFF1
0018
FFE1
FFF0
FFE7
FFEF
0014
FFFF
FFF8
FFF2
0000
0003
FFFF
FFE8
001A
FFFD
0012
FFF9
FFF6
000D
FFF3
FFFB
FFF2
FFEE
001C
000B
0010
0014
FFE9
000A
FFEC
0006
FFE4
0018
0007
001C
0002
FFF7
0001
0001
0010
0008
0018
000F
0006
0018
FFF0
FFEB
001B
0002
FFF6
FFF2
0002
0019
FFEB
000E
FFF6
0017
0015
FFE5
FFF8
000B
0016
0002
0017
000A
FFFE
000D
FFEE
0018
000F
000D
FFF1
FFFE
FFEA
0004
FFF9
FFF3
001B
001A
FFF2
FFFB
FFEB
0015
0014
0017
001A
FFED
000A
FFF6
FFE9
FFF8
0014
0017
FFFD
000A
0007
FFF8
FFFD
0004
0006
0018
FFE9
001B
000A
000F
000F
FFEE
FFF2
FFEB
0004
FFFC
FFE0
FFFC
0028
001D
0029
000F
0001
FFEA
0015
001A
000A
000D
0013
000A
0003
0007
FFE1
0008
000B
FFFC
000A
FFF8
0017
FFEC
FFF5
000F
FFE0
0003
FFDD
001E
0000
000E
0004
FFF8
0009
000B
0002
0014
001B
FFF2
0015
FFF3
FFFA
FFEA
000E
FFEB
0009
0001
0012
0002
FFF5
FFFF
FFE7
FFFC
FFFE
FFEA
FFFD
0002
002C
0021
000B
FFF0
FFDC
0019
0011
0010
0012
FFE9
0009
0016
0003
FFE2
FFF5
000A
0010
FFEE
000C
0016
000B
FFED
FFF0
FFFA
FFEF
FFF5
FFE5
FFF7
FFF5
0013
0011
0013
FFF7
FFE9
0001
0000
FFF8
FFF4
FFF9
001F
FFFF
000D
0001
000E
FFF1
0016
FFDD
0013
FFF2
0016
FFFC
0003
FFF6
0001
FFED
FFED
0012
FFF9
0017
FFEE
0003
0012
001A
000F
0000
000D
000F
FFFD
FFF4
0014
0000
0018
0016
FFF1
0005
FFE8
0018
0005
0018
FFFD
FFFD
FFEE
FFEE
FFFE
000F
FFFC
0011
FFFA
0005
FFEB
0016
FFDA
FFF8
FFF1
0003
0009
001D
FFF3
FFF1
0011
000B
FFDE
FFF9
0005
0015
000A
0009
0010
FFF7
FFF0
FFE4
000D
FFF2
000B
FFF3
FFEF
0009
FFEF
0003
000F
0000
FFF8
000C
0006
FFEC
FFE2
0002
0010
FFF8
0002
FFF5
FFEF
0005
FFE4
0009
0000
FFF7
000A
FFF3
000F
0003
FFD6
FFE8
0011
0014
0019
0019
0015
0009
FFF8
FFE3
0008
0010
001E
FFE7
0022
FFF3
FFE6
FFEA
0011
0004
0011
FFFD
000B
FFF4
0002
000F
0011
000B
FFF2
000B
000B
0006
0022
FFF4
FFFF
FFFC
FFDE
001B
0013
0012
FFEA
0020
FFF2
0009
0013
FFD5
0011
FFEC
0001
0016
001A
000C
0014
FFEA
FFF8
FFF5
FFEC
FFF8
0007
FFF6
0011
FFF2
FFF6
0012
0007
FFF0
000E
0003
0009
FFF8
FFEA
000B
FFE3
FFF9
0006
000D
FFF2
0009
0000
000E
0019
0024
FFFF
FFF4
FFE7
0003
FFF4
FFF9
FFE3
FFFB
0012
FFED
FFF6
FFDE
FFF4
FFF6
FFFE
FFEE
FFFB
FFF1
000D
000C
0005
0011
FFEA
FFEE
FFE0
FFFD
0013
FFEE
FFFB
0016
FFE0
FFDF
FFD8
FFF1
0001
FFEF
FFF6
FFF5
0005
FFE2
FFEE
FFF8
FFF4
FFF3
000B
FFE8
0006
FFF0
0002
0010
0011
FFE4
FFF9
001D
0016
001D
0001
FFE7
FFF9
FFFA
FFDB
FFFB
000F
0002
FFE7
FFD3
FFF6
0003
FFED
0006
FFFA
0013
FFE4
0022
0016
000B
FFFB
0014
001E
000F
001D
FFE7
FFFE
000A
0014
0010
FFEA
FFE1
FFEB
FFFD
FFE8
FFE0
0011
0005
001C
FFF5
FFFD
0005
FFEC
FFF7
FFFB
FFF2
FFF5
FFF8
FFE2
0000
FFE6
0014
001A
0001
FFEB
FFF3
000F
FFEE
FFEA
000E
000A
0016
FFFA
0023
FFFB
FFFF
FFFA
FFE1
0012
0011
FFE6
0003
000A
001B
0010
FFFC
FFF8
FFF2
FFF9
FFFD
0003
0008
0017
0007
FFFC
0002
FFEC
0018
0000
0018
001D
000D
FFEF
0008
0007
0008
FFF1
FFE2
000F
FFEC
FFEF
0003
FFE3
000A
0003
0007
FFFE
001D
FFE8
FFEB
FFF9
0012
FFDC
FFEC
FFF0
0007
FFF0
FFF2
0006
FFF6
FFE2
0018
000C
000A
FFE9
0015
FFEB
FFE8
FFF3
FFF7
FFFA
FFFF
000D
0014
0003
0006
000C
FFFC
0004
0005
FFED
FFFB
0019
000D
0001
0020
FFF7
0001
FFFC
FFFC
000A
FFF6
FFF7
FFE9
0017
FFFB
FFE1
001A
FFEF
000C
FFF8
001C
000D
0006
0017
FFED
FFFC
FFF6
FFFD
FFF8
0000
FFFB
FFE4
000A
000B
0004
FFEB
FFEC
0009
0001
0016
0001
FFFB
0004
0009
000D
001A
0000
0024
FFF2
FFF7
001E
FFF7
000D
000B
0013
FFFA
0019
0013
FFF2
0007
0001
001A
0014
001A
FFEA
FFFA
0007
0012
0006
0003
FFF2
FFF0
FFF1
FFF2
FFFE
0006
FFE8
0015
FFFD
FFFC
0000
000C
000D
FFFA
0008
FFE5
FFE9
000E
FFE8
000F
0010
001A
FFF2
FFF0
FFF6
FFEA
0011
0008
FFFF
FFFC
FFF5
0000
FFF5
0012
FFF6
FFFA
000D
FFEF
0017
FFFF
0008
FFFD
FFF6
FFF5
0007
FFFB
0006
0018
000A
0003
FFDF
FFF7
FFEF
0003
FFF1
0010
0010
0011
000E
FFFF
FFF3
FFF4
0001
0001
000F
0000
0022
0001
0001
0007
FFEF
FFFE
FFEB
FFF3
001E
FFF9
FFFD
0010
000E
FFED
0016
0001
FFFD
FFEA
000B
0007
FFEB
FFFF
FFE7
FFF7
FFFB
FFF0
0003
FFE6
FFFE
0004
0016
FFEC
000C
0016
0018
FFFD
000B
FFED
0007
FFF0
000F
000D
FFFF
0016
0017
FFF9
0012
FFFF
0018
FFFE
FFF2
FFEB
0000
FFFD
FFF7
FFE4
0006
0004
FFF7
0005
FFF6
FFF5
FFF4
FFDD
FFF1
FFFD
000A
000F
FFE7
0002
FFF7
001E
0000
FFFD
FFE8
0019
FFF6
000C
FFE5
FFF7
0007
FFD9
FFDB
FFF2
0011
0003
FFFF
FFF2
FFE9
FFFD
FFFA
FFDE
0000
FFEF
0008
0003
0014
0000
0006
FFF8
0004
FFFA
FFF2
0010
0019
0005
0001
0003
FFF0
FFEC
FFF2
0009
001B
FFFA
FFFA
FFFA
FFF8
FFEE
0017
0018
FFF1
FFF2
FFF2
FFFC
0016
000A
001D
001E
001E
0001
FFF3
FFF1
FFFA
FFED
0015
FFEE
000D
001E
0017
000A
0016
0012
000A
0012
FFF9
001A
000F
FFF2
FFE6
FFFD
FFF9
0003
FFF9
0010
000A
FFFB
FFE7
0008
0008
FFEC
001C
FFF7
FFEC
FFF6
0017
0015
0008
FFE9
FFF3
001B
FFE8
000E
000E
0002
0009
000B
000B
000F
FFF4
FFE8
FFFD
FFF6
FFF5
000C
000F
000E
0013
000F
FFEB
FFFF
FFF5
0000
0000
0012
0007
FFF4
001A
FFF4
FFF9
001E
FFEB
000C
FFF3
0018
0002
FFFE
0002
0011
FFF3
FFF2
0011
FFEB
0018
001F
FFF9
000B
FFF2
0017
0007
0012
FFE5
FFF8
FFF8
FFFF
0004
000C
FFFE
0019
FFFA
0009
FFED
001D
FFF4
001F
FFFC
FFF1
FFF1
FFF6
FFE5
000A
0007
FFFC
FFE4
000A
FFFD
FFEF
FFEB
0010
0002
FFE9
FFE8
FFED
FFEA
FFF7
0007
FFEB
FFF7
0000
FFFB
0008
FFF8
FFF7
0002
FFF7
0001
FFF4
0019
FFF2
FFFE
001A
FFEE
0007
FFF1
FFF5
000D
0013
FFF8
FFF1
000E
0006
0018
001A
FFF3
0004
FFFA
0003
FFFA
FFF8
FFF0
FFFF
0009
FFF4
0017
FFE7
FFF6
0017
FFE8
FFF8
0015
0006
000C
FFEC
000E
FFEB
FFE9
000D
000D
FFF8
FFF8
0007
0001
0015
0000
0014
0010
0020
FFFF
000D
FFF9
0017
0010
FFF7
FFF7
0014
0016
FFF8
FFFF
0012
0009
0006
FFE1
FFE9
0003
FFF7
FFF0
0002
000F
FFFE
0005
FFED
0013
0009
000A
FFEC
000D
FFF4
0024
FFF5
FFEE
FFEC
000A
001B
0002
FFF7
0001
0013
FFEC
FFEF
FFDE
FFEA
FFF9
0016
0003
001C
0017
FFF4
000D
0006
0007
FFFE
0005
FFEA
FFF4
FFF5
0010
000F
001D
0007
0002
FFED
0001
FFE8
0017
FFF7
FFFE
000A
FFE7
FFFA
0002
0010
0013
FFE9
FFFF
0002
000D
FFFE
FFF4
FFF0
000B
FFFB
FFF8
0005
001A
FFFB
000C
FFFA
FFFC
0008
FFEE
FFF2
FFF0
000A
FFF7
0015
FFE2
0018
FFF7
001B
000B
FFF4
FFEA
FFF7
0012
0009
0015
FFFD
0014
FFFB
FFF0
FFE9
FFFF
000E
0010
FFF6
0008
0002
0007
FFE2
0010
0003
FFE4
FFF9
000C
FFF7
0008
FFEB
000B
0002
0018
FFE3
0010
0002
FFFD
000B
FFFD
FFF7
FFF6
0002
FFE9
FFFB
FFF7
0004
FFE9
FFF5
FFF9
FFF5
FFED
0019
FFF8
000A
0000
0019
FFE1
0004
FFF8
0008
000E
0007
FFE3
FFF2
FFF7
FFEB
FFFB
000F
0003
000A
FFF3
FFEB
FFE9
FFF4
FFF6
FFF9
0010
FFEB
FFE0
0015
FFF5
000C
0001
FFF0
FFED
FFF0
FFEF
0017
FFF9
FFE5
FFFF
0019
FFE7
FFE5
FFFC
001B
000B
FFEC
FFF6
0008
FFF5
0004
0006
FFF0
000F
FFFF
FFF0
FFF2
0015
FFED
0001
FFF2
FFE9
0003
0008
000C
0008
0016
0012
0016
FFE2
0006
0013
0020
FFF1
FFFB
FFE9
001C
FFF5
FFEE
0010
000B
0010
0001
FFF9
0005
FFFC
000F
000E
FFEA
001B
000C
FFF3
000A
FFFA
000F
FFF5
0009
0007
FFF9
FFEC
FFF1
0003
FFF7
000A
0017
FFE9
0008
0012
0009
FFF4
0017
FFE2
0001
FFE8
FFF3
FFFC
000D
0012
0014
0000
FFE7
FFF1
0017
FFEF
0020
0019
0015
FFED
FFF4
FFF2
0017
0002
FFE4
0015
001A
FFEC
0011
0014
FFE8
FFF3
0007
FFE9
0020
0017
FFF6
000C
FFEE
000F
FFFF
000B
FFFA
FFF3
0006
0012
000B
001A
0010
0003
FFFB
FFEA
0015
0011
0005
0015
0011
000B
0021
FFE8
FFFA
0002
0020
000D
001C
FFFE
0007
0014
FFEF
0015
001B
000D
0019
FFF8
000B
FFDD
FFFB
0018
0001
0006
FFF5
0015
0011
FFF9
001A
FFF3
FFF3
FFE5
000A
FFFB
FFE2
000D
FFFD
000C
000E
000C
FFF6
000B
FFEA
FFEA
FFE8
0019
FFE8
000F
000B
FFE6
FFEC
FFFA
0001
0008
000E
FFED
0011
000F
FFFA
FFE7
0009
FFF2
0015
FFFD
FFF2
FFFB
0013
0001
FFFE
0002
FFE8
FFF3
FFF5
000F
FFEB
0015
0004
FFF1
FFEF
000A
FFFD
001A
000A
0004
FFF7
FFFD
FFEE
FFFB
FFDE
FFFE
FFF9
0010
FFE4
FFFE
0017
FFF0
0006
FFE7
FFEE
0013
FFFA
0010
000E
FFEF
0014
FFF3
FFFA
FFF3
FFE1
FFE9
FFFA
0019
FFFE
FFFF
FFFF
000B
FFFD
0019
000F
FFE7
FFE8
FFF3
000E
0009
FFF8
FFFE
000F
0001
0011
0008
0009
0008
FFF0
FFE1
0015
0018
FFE9
FFE6
FFFE
FFEE
0002
000E
FFE5
0009
FFFE
FFE8
FFFB
FFFE
0018
FFED
0007
FFE1
000F
FFF8
FFEE
FFE9
000E
0015
FFFD
FFE8
FFFC
0015
0000
FFED
FFF3
0014
FFF1
FFFC
FFEC
FFFF
FFEE
FFFC
FFFB
0009
0000
FFF6
001B
FFF3
FFED
000F
000F
0005
0004
0012
FFEB
FFFE
FFF0
0008
FFE6
0000
FFF2
0002
FFEB
0015
000E
0006
000D
000D
FFEC
0014
0016
FFFB
0005
001A
0009
FFFB
0015
FFEF
000D
FFF1
FFF4
0016
000A
FFF3
FFFF
FFFA
FFDF
FFF7
FFF5
0007
0008
0018
0005
0010
FFE2
FFFE
0008
0008
0021
FFFE
0014
000C
FFFC
FFF2
FFE2
FFF0
0002
FFF3
0017
0012
0001
FFEA
FFE5
FFEF
0007
0015
FFF9
0012
FFF6
0006
FFEA
0000
FFFC
0010
FFFE
0001
001A
FFFF
0011
FFF1
FFED
FFE7
FFF7
001C
000C
FFE9
001A
FFFA
0018
FFF0
FFFA
0010
0020
0006
FFEC
FFF8
000B
000D
0003
000E
FFE6
FFFE
0016
FFE3
0012
000E
FFF0
FFFD
0008
0005
FFFF
0004
FFE8
FFF5
0004
FFF4
000D
FFEB
000C
000B
FFF7
FFF1
FFFE
001E
0001
FFEF
FFFE
0003
0003
0016
0001
0010
0020
FFED
FFED
FFFC
001E
FFF0
000A
0018
0016
001F
FFEE
FFF8
0010
001B
0019
0015
0009
0002
001A
FFEA
000A
FFFC
FFF1
001A
FFE4
FFF7
FFE0
0001
FFE7
FFF6
FFFC
0012
0011
0004
000A
FFF0
000B
FFEF
001D
0014
0012
0008
FFFD
FFF9
FFFA
FFFD
0004
FFFF
FFFE
001C
FFE7
0002
FFFF
0003
0005
FFF5
001D
FFFD
FFF1
000B
0000
FFFE
0014
FFFA
000C
0000
000D
0009
FFF1
0011
0005
FFF4
0003
FFE8
FFEB
FFF5
FFEF
0004
FFEC
FFFE
FFF7
FFF8
FFEA
0010
FFF4
0009
0016
FFFE
0022
FFE6
FFEF
FFED
001A
FFFC
FFF1
FFF5
0000
FFF5
FFE3
FFEB
FFEE
FFF5
FFF8
0003
FFEB
0001
000A
0005
FFED
000B
FFEE
0008
0014
0007
FFF0
0018
FFE5
000D
001E
FFEF
0013
000E
FFE1
FFF7
FFFD
0006
FFEF
FFDF
001F
FFE7
FFF2
0010
0005
0008
0005
0008
000D
FFF1
FFE1
0002
0006
001A
FFFF
FFED
0014
0012
001B
FFF7
FFEA
0009
001A
000C
FFFE
FFF5
FFED
FFF6
000E
0018
0009
FFFB
FFF6
0015
0023
0006
FFF3
0009
0013
FFDF
FFF1
FFEF
FFE9
FFF1
000B
0003
FFF6
000F
FFFE
FFFD
FFF9
FFF4
0017
FFF0
0013
FFFE
FFEC
FFF0
000D
001A
FFF2
001B
FFFB
0018
000A
000D
FFF6
0018
FFF3
0009
0017
FFEF
FFED
FFE9
FFF2
001E
001E
FFEC
0005
0005
FFEE
FFE5
FFE3
0002
0001
001F
FFEB
0007
FFF8
0005
FFE2
FFFB
0017
0002
FFF7
FFF8
0001
FFF3
000E
FFEE
FFE6
FFE6
FFF9
0010
0019
0007
FFEC
FFF8
FFEF
0002
FFFA
0001
FFFA
0010
0023
0001
000B
FFFD
0000
FFDF
0021
0004
000C
0000
FFF7
FFFF
FFF5
FFF3
FFEA
0022
0007
0015
0012
FFFC
FFF2
0007
FFFD
0019
0015
0011
001A
0003
001A
0013
FFE6
FFEF
0015
0015
001B
0014
000F
0003
FFE6
0017
000A
FFEE
FFF1
001E
FFF5
FFEA
FFFF
FFF6
FFEC
FFEF
FFEB
000F
000E
FFFD
FFF8
FFF9
FFE8
0007
FFF5
FFED
FFF1
001A
0000
0012
0004
0016
FFF6
0001
FFEB
FFF1
0023
0011
0008
FFF8
000C
000E
FFE8
FFEB
0018
001D
FFEF
FFFE
FFEE
FFF8
FFF4
0003
FFEE
FFF6
FFEB
FFF3
FFF8
FFFA
001A
FFFE
FFF0
FFFC
FFFE
000A
0014
FFF3
000E
0006
FFF4
FFF5
0006
0000
FFFE
FFF2
0019
FFF4
0006
FFF9
000C
000B
000E
FFEB
FFF5
FFFA
0010
FFFA
0003
000E
FFF6
000D
FFEF
FFEA
FFF1
FFE8
FFFC
FFF3
0017
FFE3
FFFF
0017
FFFB
FFED
001A
FFEB
FFEA
0011
001D
FFF7
FFF5
FFEF
0001
0001
FFF3
001B
FFF2
FFE5
FFEB
001B
FFEA
000F
FFEE
FFFE
FFF7
0010
FFE7
0006
001D
FFF3
FFE2
FFEF
FFF9
000C
FFF6
FFF4
FFFB
FFF3
FFE6
FFDF
FFED
0006
0002
0009
0015
000C
0000
FFF6
0011
FFE6
FFF0
000C
000B
FFE3
FFE7
FFF4
0003
0005
0003
0004
FFF6
0009
FFF5
000C
0007
FFFF
0012
0008
FFED
000E
FFE6
FFF3
FFFD
0004
FFF4
0005
FFE9
FFF1
0014
FFFE
001E
0000
FFEE
0018
0002
000E
0018
FFE8
0003
0011
FFFD
000E
000D
FFFB
0001
FFFE
FFEF
FFFC
0009
FFF7
001B
FFE3
0000
FFF1
FFF1
FFF1
0012
0013
FFF8
000D
0008
000A
0005
000B
0002
FFF4
0004
FFE8
FFF1
FFF7
FFE5
FFF0
000C
0012
FFEE
001D
FFF1
0010
FFEC
FFE8
FFFD
FFF9
FFED
000D
FFFA
0011
000E
FFE3
FFE0
0010
FFF2
FFF7
FFE7
FFF7
FFE4
0014
0004
0008
FFF7
FFF0
0000
000C
0025
0007
0011
0010
FFF9
0004
FFF9
0001
0001
0014
000E
FFF6
0000
0002
FFFF
0006
0012
0016
0006
0017
0024
FFF1
FFE9
FFE7
000C
0008
FFF3
FFF7
0017
000B
FFFE
FFE5
FFE3
0010
FFED
0006
0009
000E
FFF5
0001
FFFE
FFE1
FFFE
0008
FFE9
FFF0
0006
FFE3
0007
FFFD
FFFC
0008
FFF9
000A
0007
0011
FFF1
FFFB
FFF1
0002
FFEA
FFF9
0025
001C
0005
0000
FFEA
FFF2
FFE2
FFE9
000C
0003
0019
FFF5
000D
0006
000A
FFF3
FFED
0016
0000
001D
0007
FFEE
FFFF
FFFE
0001
0019
FFF5
FFFC
FFE7
000A
0018
FFEA
000C
FFF9
0013
0008
FFF1
FFF9
0017
0002
001A
000A
0003
FFF2
FFE3
FFF4
0006
000E
FFF1
FFF2
FFEB
FFFF
FFE8
FFE0
000D
FFEB
0009
0003
0020
FFFD
FFED
FFEC
000D
0017
0017
FFF0
000D
001D
000C
FFFA
0006
0002
000D
000E
0000
0019
0004
0001
0015
0001
FFE9
0016
FFF6
000D
0006
0014
0018
001A
0005
0009
0001
0010
0018
0005
FFF7
FFF0
000B
0004
FFDF
001B
0017
FFFA
0005
FFF8
000F
000C
001A
0010
001A
FFE7
FFEE
0013
FFF4
0003
000F
FFE1
FFDC
FFF9
0001
FFEF
FFFC
FFFB
FFEA
000B
FFEA
FFEB
001B
000E
000E
0004
0017
FFE7
FFE8
0013
FFFD
FFF6
0013
FFF2
001B
0004
FFEA
0016
0003
001B
0005
FFEC
0019
0003
000E
0001
0003
FFEA
0021
FFFF
0006
0001
FFF8
0007
001C
0004
0017
001A
FFF7
0018
FFE9
FFF1
FFFC
0005
0004
FFF5
FFF6
0013
0012
FFF9
FFFD
FFF2
FFF3
0010
0013
0012
0013
FFFD
0001
FFF3
FFFF
000E
FFFE
0016
FFF9
0014
FFF6
FFFA
0015
000D
0017
0018
FFEF
FFEB
FFF3
0010
001F
FFF4
FFFB
FFF0
000F
FFF8
FFFA
0020
0009
FFF1
FFEA
0009
001B
FFFD
0002
0004
0012
0011
FFF5
FFF7
000E
FFE6
FFF8
000F
FFFE
FFDB
FFDF
FFF0
000F
0001
0004
FFF3
0010
FFF2
FFFF
0013
FFF2
FFE5
FFF3
000F
000C
FFED
FFE4
FFF1
FFF2
FFEE
0011
0001
0016
0019
001B
FFF7
FFEE
FFF0
001B
000C
0019
FFF9
FFF7
001C
0018
FFE9
FFFD
FFEC
0003
FFEF
FFFB
0001
0005
0015
FFFD
000F
FFFA
0020
000C
000F
0018
000B
FFEF
FFD9
FFF7
FFE9
0023
FFF6
FFE4
0004
0006
FFF1
0015
FFE4
0007
FFF4
FFF5
0019
0008
FFF6
0017
FFFD
FFEC
FFE8
FFE4
0021
0004
0003
FFF0
001A
FFF3
FFF6
FFF3
FFFE
0002
FFF6
FFFD
0016
000A
0013
001E
0008
FFF1
0007
0011
0010
FFE9
FFE1
FFF7
000B
0002
FFF4
0019
0010
0005
FFE5
FFED
001E
0003
FFF0
FFFE
FFEB
FFF9
0010
0006
000E
FFF7
0008
0010
0010
001D
0008
FFFF
FFF4
FFE5
FFF4
0006
FFF2
FFF2
0006
FFF5
FFFE
FFE2
FFF8
000B
000B
001C
FFE7
0000
001A
0013
FFE7
FFEA
FFF1
FFEC
FFF1
000E
FFF2
FFF4
FFE7
000F
FFF8
FFF4
FFDF
FFFD
0005
FFFB
FFFB
0006
0001
FFFA
001B
000A
FFFE
0005
FFFA
FFF2
0018
FFF0
FFED
0013
FFF2
FFEF
FFFA
FFF7
0016
FFF6
0008
0019
000E
000C
FFF0
000E
FFEE
0016
0000
FFFF
FFFE
0007
0006
0010
0000
FFFA
FFFB
0008
FFEA
FFF6
0003
0006
000A
FFF8
FFEA
FFFD
FFF0
FFFF
0019
FFFE
0016
FFE2
FFF4
0018
0010
FFFE
FFFD
FFF0
000B
FFE5
FFDD
FFE8
001A
FFF5
0002
FFEE
0004
0011
000D
FFF8
000C
FFF2
001C
0008
FFED
000D
FFEB
0012
FFF0
FFEA
0019
FFF8
0029
FFEF
FFFD
FFE5
000E
FFF7
FFEC
0013
FFF0
FFFD
FFE8
FFEA
0006
FFE7
FFEA
0008
0003
0005
0004
FFF5
0010
FFF2
0006
0008
001D
0007
0004
000B
0017
FFF4
0000
0005
FFFE
0009
FFF2
FFEC
FFE4
FFEF
FFF6
0003
0008
FFEF
FFE4
FFEE
FFFF
FFEA
FFFA
FFEE
FFF0
FFF9
0015
FFE3
0002
0005
FFEC
0002
FFFC
0004
FFE7
000B
0001
0007
0004
0009
FFF6
FFF8
FFFE
FFF7
000F
000E
FFEC
FFF3
000E
0005
0016
0004
001A
FFED
FFE3
FFE0
0009
0010
FFFB
000F
FFEE
0001
0007
0000
FFE3
0016
0008
0003
0012
000E
FFEC
000A
FFF7
FFDE
FFE5
FFEB
FFF0
FFFD
FFFF
000B
FFF0
0010
0003
000A
FFF7
FFF4
FFF1
FFE6
FFF7
FFF8
0013
0012
0014
0020
000F
FFFF
000E
FFF7
FFE6
0003
FFE7
0007
FFFB
FFE2
FFFD
0001
FFEF
0006
FFFC
0002
FFE5
FFE8
FFF2
FFFF
001B
0002
000F
0014
FFFB
FFEE
0003
0006
FFF8
FFF9
0007
000B
FFED
FFF1
FFF6
0014
0002
FFF5
001C
FFFE
0000
FFF6
FFE8
FFE5
001A
0004
0018
0012
FFF6
0019
0016
FFE3
0002
FFFF
0002
0009
FFFE
FFEC
FFF3
0017
000C
FFFA
0009
0007
FFFD
0000
FFF8
FFEA
FFFF
FFF2
FFE0
FFED
FFE7
0003
FFEB
0011
FFEF
0016
FFE1
0000
000D
FFE5
FFF1
FFF0
0000
000F
FFFF
000B
FFE7
FFF3
FFF9
FFED
0011
FFED
FFE7
FFEA
000B
FFFA
0019
FFFA
0008
FFF1
FFF4
FFE8
FFF5
0010
0027
0008
FFF4
0002
FFEE
0015
0012
0005
000D
001F
0010
FFED
0007
0012
000D
FFF7
0009
0009
FFFC
0011
0012
0002
0013
0001
FFF0
FFEE
FFF8
000E
FFF5
FFFE
000A
FFF4
FFF4
0007
FFED
FFF8
000A
000C
0000
FFEC
0009
FFEA
0012
0015
0017
0012
0013
FFEF
0009
FFE1
FFF8
FFFC
FFF7
FFFB
0011
0018
000F
FFF2
000C
FFF5
0004
FFEA
FFEB
FFFB
FFED
0000
000A
FFF6
0009
FFF5
0019
FFF6
000C
0007
FFFB
0011
0014
0015
0006
FFF3
FFE7
FFFF
0013
000B
0001
000B
000C
000A
FFE9
FFE5
0011
FFF3
FFF9
0014
FFF1
000A
FFF7
0000
FFEC
0000
0018
FFF9
0013
0021
0009
0019
FFE4
0011
0004
FFF3
FFE7
0013
0000
FFE3
0004
0019
0005
FFF1
000E
FFEC
0006
FFFC
0007
FFF8
FFE9
0014
0004
0018
0009
FFF3
0020
FFF9
000E
FFF0
0007
FFEB
FFEC
0017
0001
0027
0022
FFFC
0008
FFEA
FFF6
0003
FFF5
FFEC
001D
FFEC
0014
0010
0003
FFEC
0013
FFF5
000F
001A
FFF3
0009
0009
FFE5
FFF7
0011
0005
FFFA
FFE2
FFEF
FFEE
0004
FFF3
000A
FFFB
001F
0006
0011
000D
000B
FFE9
000C
FFEE
FFEE
001A
0004
000C
001E
FFF9
FFFA
0006
FFF9
FFF0
0014
FFEA
000E
FFF5
0005
FFFD
0019
0010
0014
0009
000B
FFF1
FFF3
0001
FFE9
FFEF
000C
FFFE
FFF6
001B
FFFE
FFFD
FFEF
FFF3
0001
FFE7
0002
0014
001B
0001
0003
0010
FFFD
FFF6
FFEF
FFF1
0009
000A
0017
FFFD
0007
FFFB
0016
FFF0
0005
FFF4
FFF4
FFEC
0005
000F
FFFD
001B
0007
0003
001E
0001
FFEC
FFF0
FFFE
FFED
FFEB
FFF5
0007
FFF5
FFEB
FFF6
FFEC
000B
000B
001A
0015
FFFB
FFEE
FFFE
0018
FFE4
000E
001B
FFFE
000B
0017
0007
FFFC
FFF6
FFEE
0001
FFF9
FFFC
FFFB
001C
0001
001F
FFF9
FFE6
FFE0
0011
FFFC
FFEE
0005
FFEB
0020
FFF2
FFF1
FFE6
0019
0004
FFEF
0010
FFE5
FFF3
0007
0005
000E
000E
0013
0005
000B
0010
001A
FFF1
000D
FFF4
0000
0010
FFF7
000C
FFF6
0023
000B
001A
0003
FFE3
FFEE
000F
FFFD
FFFE
FFFA
0018
0006
FFEA
FFE6
0013
FFE5
0013
0005
000A
FFF4
0019
001E
FFF5
0020
000F
0018
0002
0012
FFF6
FFF3
000F
FFE9
0013
0000
0018
FFF3
0008
FFF0
0000
FFF7
000F
000F
000C
FFED
FFEF
FFF8
FFE9
FFF8
FFF8
000A
FFEA
FFF9
FFE8
0006
FFE2
FFEB
FFEF
000D
000E
FFEE
FFF0
0016
FFFD
FFEB
0001
FFF5
0012
0011
FFFC
FFFD
FFF9
0011
0006
FFFC
000B
0009
FFE9
0006
0009
000D
FFFB
FFEC
0004
FFFD
0019
001A
FFF7
000C
FFDF
001C
FFE7
0007
FFE9
0017
FFF9
000D
001E
FFE4
FFF1
FFF0
000D
0006
FFED
FFEC
FFE7
000C
FFF4
0012
FFFA
FFE8
FFFF
FFEE
FFF1
FFEC
0005
0014
0015
FFEB
0017
0011
FFF6
0000
000E
000C
0007
000D
FFFE
FFFC
FFFD
0018
000E
FFEC
0019
FFFE
FFFC
0008
FFEB
0020
001C
FFF5
0020
001E
0001
0015
000F
FFEE
FFF3
000F
FFFE
FFFE
000C
FFEC
001A
FFF1
FFFA
0012
001A
FFEF
0000
FFFE
FFF3
000E
000C
FFEF
001C
FFFD
FFF7
0001
FFE7
FFF8
FFF3
FFED
FFF6
0023
000E
FFEB
FFF6
0014
0003
0015
0008
FFF8
0017
0011
FFFA
FFED
0015
FFEF
0010
FFFE
FFF5
0003
FFEF
0002
FFF0
FFF2
FFF5
FFF5
0010
0014
0012
FFF7
FFEE
0022
000F
FFF3
FFF3
000B
000C
0010
000A
FFF1
0012
FFFD
0004
FFFE
FFE8
0014
0015
FFED
FFFC
0016
FFE6
FFFF
0011
0001
FFFE
FFE2
FFF3
000C
000F
000C
FFFE
0003
FFEC
0018
FFF5
000B
0009
FFEE
FFF2
000D
0011
0008
FFF1
FFFF
0011
FFED
FFFD
0000
FFF0
FFFC
000E
0012
FFF1
FFF9
FFE9
FFF9
0014
0007
FFF7
FFED
FFF9
FFF3
FFEB
FFDF
0009
FFF2
0008
FFF6
0003
0010
FFEA
FFF7
FFE1
001B
0006
0004
0016
0010
FFF3
0013
FFFA
0012
000D
FFFD
0014
0014
0016
FFF3
FFE6
FFE0
FFF4
FFFA
0011
FFFD
FFFF
0012
FFFA
FFEE
FFDD
0019
001A
FFF6
000E
FFE5
0003
FFFE
0004
000C
0011
0004
000C
0009
001F
0014
0006
FFFC
FFFB
0011
0016
FFF8
FFFD
FFEE
FFEA
FFFA
0004
FFF9
001E
0008
FFEA
0015
FFF8
0014
000A
0019
0001
FFF8
FFFE
001B
0014
FFE3
FFF8
FFED
FFEB
FFEA
001B
0011
0004
FFF7
0004
FFF8
000E
FFF9
0005
0006
FFF2
FFF4
0007
FFEF
0012
FFF5
0001
FFFE
001E
0018
FFF4
FFE8
0006
FFF3
FFF3
001A
0016
FFE4
0009
FFF0
FFF3
0002
FFFA
FFF2
FFF2
000B
0021
0015
FFED
FFFE
FFFF
FFF9
0019
FFF4
0008
FFF4
FFF2
0014
FFF6
FFFA
FFE9
0018
FFF7
FFFD
FFF4
000B
000C
FFF4
001C
0010
0010
FFF4
FFFE
FFF1
FFFA
0007
0004
0001
000C
FFE5
0007
001D
FFE2
000C
0003
0001
FFFC
FFEC
0016
FFF2
0004
0015
000E
0002
FFF6
FFFE
FFF6
000D
FFF0
001D
0006
FFEF
FFF7
0012
FFFC
FFF5
0016
FFE7
0010
FFE6
FFEA
FFE2
FFE7
0015
FFE8
001C
0001
0011
FFE2
0009
0004
FFFD
FFF9
FFF1
000E
0007
FFF3
FFE5
000D
0001
001A
FFE9
0008
FFF9
FFE6
FFF9
0002
0000
FFF4
0015
0011
000A
0009
FFFF
FFEE
FFF3
FFF0
0013
FFF7
FFE5
FFF3
001E
0018
0017
000D
000A
0023
0020
0012
001E
0009
FFFE
000F
000B
001E
FFF3
0003
FFF2
0008
0001
FFF2
0008
0013
0013
0006
FFF3
0019
FFFA
0018
FFF7
001B
FFE2
FFEF
FFF9
000F
FFFD
FFFB
0004
FFF6
0005
0014
001C
FFF4
FFED
FFF9
000F
FFFF
000A
000F
0002
0016
000E
FFFE
FFF2
0008
0011
FFE9
0007
FFF9
FFFF
001F
001F
0006
0012
FFF8
FFF1
001A
0016
FFF4
FFF5
FFF6
FFE5
000B
000F
FFF9
FFF1
FFF5
FFFE
0020
000E
FFF0
FFFC
FFE5
0003
0018
000A
0010
001A
0011
0009
0008
001B
0007
FFF0
FFED
0000
FFEE
0021
0002
FFE2
0008
FFED
0004
001C
0012
FFFB
0012
0004
000B
FFEA
FFFA
FFED
000B
001B
001B
FFF5
0000
FFFA
FFEC
0001
000F
000F
FFF5
0018
0010
0006
000C
FFF6
FFEA
FFF4
0005
FFF4
FFEE
0016
0021
000B
FFE7
FFEA
FFEB
001C
FFFF
0004
0005
000A
0004
FFF1
000B
0017
FFFD
000C
0019
001A
001D
FFF5
FFFD
0002
FFE4
0003
FFF1
0010
000F
000F
FFFA
0007
FFF2
000E
FFF1
0008
FFEB
000F
0001
0004
0011
001A
FFE2
FFF9
FFFE
FFEF
0017
0021
0002
001B
000F
000E
0013
FFED
FFED
0001
FFF4
FFEC
FFF5
FFF3
FFE8
0006
FFF3
0014
FFE6
FFE0
FFE2
FFFD
FFE3
FFF7
FFF0
0019
0017
FFE6
0000
FFEF
0017
0003
0021
FFEF
000B
001A
0010
FFEF
0013
0014
0015
FFFE
FFEB
000D
0008
0004
0011
0000
000C
0004
0016
0015
000C
0016
0006
000C
0010
000F
FFF1
0001
0007
0020
0019
0017
0006
0009
FFEA
0001
0013
0015
0000
0000
0001
0020
FFF0
0018
0004
0011
0013
0008
0000
FFEA
FFE9
FFE7
0017
FFF6
001E
FFF6
0014
FFF9
FFE6
FFE6
FFF2
FFFE
FFFC
FFFB
000F
FFF8
0010
0008
0009
FFF5
FFFF
001E
0013
000A
FFF6
0001
FFE6
FFE4
FFEB
FFFB
0012
FFF4
000D
FFF7
FFF9
0012
0016
FFE3
0015
FFEF
0015
0002
FFE9
0017
FFFD
0007
FFFA
FFFF
0013
FFFD
FFF6
FFEC
0001
FFF5
FFEB
FFFF
FFE5
0001
0017
FFFE
FFE8
0001
0018
0007
FFEA
FFE0
0004
0019
FFF6
0001
FFF4
0010
000D
FFF1
FFE2
FFED
0015
0008
FFEB
FFFB
0013
FFF6
FFFB
FFF0
000B
0005
FFF9
000D
FFE8
FFED
0008
FFE4
000E
000B
0010
0016
FFFD
0002
FFEC
0015
FFEF
000C
FFFB
0014
FFF6
FFF5
FFF9
000E
FFEC
FFEC
0004
FFFB
FFEC
001B
FFF6
000A
0007
FFF4
000A
0005
001D
FFF6
000C
FFE3
FFE6
0006
FFEF
000B
000D
001D
FFE5
FFDF
FFFC
FFF7
FFE5
FFF2
0017
0018
0010
0009
FFF9
FFEC
0017
0014
0001
0017
FFFD
FFF7
FFFE
FFE6
FFFB
000E
FFF3
0015
000D
0005
0014
FFF1
FFE3
FFFF
0016
0019
0001
FFEE
FFF3
0004
FFE9
0010
000E
0015
FFFE
0015
0005
FFE2
0011
FFE8
0000
0012
0011
FFE7
FFF5
0008
0015
FFFE
000E
FFEC
FFF2
001F
0001
0001
0015
0001
FFED
FFF6
FFFF
FFF2
FFF6
0017
FFE9
000D
FFF4
FFEE
FFE6
0001
000D
FFF6
FFF6
0000
FFF3
0016
FFE3
FFED
0012
FFEC
FFF5
000E
FFEE
FFFA
FFFA
0005
FFF5
0016
FFFF
FFE1
FFE6
FFF6
FFF4
001B
0008
FFEA
FFF5
FFF3
FFEF
FFF8
FFFF
FFFB
0016
FFFF
FFEC
FFE8
0006
FFF2
0008
FFEA
0002
000D
0001
FFE7
FFED
0002
FFF0
0004
0004
FFF9
FFFD
FFE6
FFE4
0003
FFEB
FFEF
000A
0005
000E
FFE5
0003
FFE8
FFE9
0009
FFE5
0008
FFF7
FFFB
0009
0005
FFE7
0010
000A
0016
0018
000F
0005
0002
FFE4
FFEA
FFFD
0000
0014
000E
FFFF
001B
0017
FFFD
001D
0019
FFF0
001C
000B
FFF8
000B
FFFD
0004
FFF7
0013
001B
000F
0010
0009
FFF4
0017
0011
0011
0020
FFEB
0003
FFE9
000D
000B
FFE8
000F
FFF1
FFF4
FFFA
FFF9
FFFD
FFF0
0008
0006
0016
FFFE
0008
FFF8
FFEA
FFF2
FFFE
FFF3
FFF2
FFE5
0002
0022
FFE5
0010
FFFC
FFF7
FFF5
001A
0004
0005
FFEC
FFFC
FFE7
FFF7
FFE5
0014
FFE9
FFF3
FFF0
000D
FFE8
001C
0000
0017
0007
FFEC
FFEE
0023
FFF0
FFEA
0017
FFE6
000B
0004
0019
FFFA
0012
