000E
0016
0006
001B
FFE0
FFFF
FFED
0000
FFEE
FFDE
002A
FFE1
0001
FFF6
FFE4
0013
0019
0013
0017
FFF1
FFDE
FFF3
0026
001B
000B
FFF0
FFE9
FFF7
001D
0010
0025
000C
0008
000E
0009
FFD8
0005
0000
0016
FFEB
FFDB
0018
0014
FFE8
FFFB
FFE8
FFD8
0003
FFEF
0028
0002
FFD9
FFFF
0024
FFCE
0024
FFCF
FFE2
FFD6
0003
FFF6
FFF8
FFE3
FFD4
001A
0004
FFE3
0016
0010
FFFC
FFC4
0002
FFFA
001D
FFEE
FFFA
000F
FFDC
0014
FFE2
0009
FFEB
0020
0012
FFE5
0020
0013
0002
001C
0022
FFD8
0013
FFE3
0027
0022
FFE9
FFF7
FFE5
FFE5
0011
0002
FFE8
FFD7
FFEB
0020
FFFB
FFEE
001B
0017
0023
FFE5
0001
FFD9
000C
0024
0020
0004
FFEC
FFEE
002F
0016
FFFE
FFFA
0010
0028
000F
FFF9
0008
FFFC
FFE0
0023
0000
0009
FFF1
0009
0008
0019
0022
000A
0019
FFEF
FFB7
0000
000A
FFF2
FFE1
001C
FFED
001C
0014
0006
FFF6
0022
FFEB
0007
FFFA
0009
0002
FFDA
0008
0007
0010
0015
FFF5
000F
000C
0003
FFF3
0013
0013
0010
FFE2
001D
FFF9
FFE9
0003
FFEF
001C
FFFA
0004
000A
0002
FFE5
0009
FFF3
0015
FFE9
0034
0008
FFEA
FFEF
0017
0007
FFEA
FFDC
FFFE
FFF9
0020
FFEA
FFD5
0011
FFDC
0006
0003
FFF8
0009
FFE3
000D
FFCC
FFEF
002D
0032
FFFC
FFDD
000C
001F
0003
FFFF
0020
0002
0024
FFFD
000B
0027
FFE9
0018
001A
000B
0016
FFE4
FFF0
0004
FFF1
0021
FFFD
FFFD
0016
FFDB
0008
FFE2
0012
0014
0016
FFFF
FFF7
0013
FFE3
0017
FFE9
FFDD
FFFB
FFE4
FFF3
FFEF
0028
000D
0011
FFF8
0012
FFD8
002B
FFE1
002F
000B
0012
0012
000E
000E
FFD8
FFE0
FFCF
FFF4
FFF2
000F
FFEB
0003
FFD9
FFD7
FFE2
FFDB
000F
001B
0012
0021
0010
FFE7
FFF4
FFDA
FFFA
000B
000A
0021
0027
FFD4
0023
FFF7
FFFB
0009
FFE8
FFEA
FFE6
000C
0008
000C
FFE7
FFDD
FFFF
0017
0012
FFFC
FFEA
FFF6
FFF8
0009
0010
FFE4
0010
001C
0008
0029
0014
FFE8
FFFE
0013
FFD9
0008
001F
FFCF
0021
0000
FFDD
FFDF
FFCC
FFDA
001F
0020
001E
000F
000C
0031
FFCC
FFF2
FFDD
001F
001C
0025
FFD1
0011
0011
0004
FFE8
FFD9
001F
000F
FFEE
FFED
FFF1
FFF3
FFF0
FFE4
0021
000E
FFEB
FFDE
FFF8
FFF6
FFCB
FFF1
001F
0015
0009
FFFA
FFF3
FFD5
000F
FFE7
FFFA
FFFB
0018
0015
FFE9
0002
0007
000B
0003
0028
FFE0
FFDC
FFF9
FFEB
FFE4
FFDC
0026
FFE5
FFF0
FFE8
0011
FFFE
FFFE
003B
FFF9
FFE8
0012
0017
FFF5
000A
FFF9
FFE1
FFF8
FFE0
000C
FFD7
FFE5
FFD1
0017
0014
FFD2
0024
001F
0003
FFF6
000F
FFF0
FFE2
0007
FFD5
0027
0020
FFFD
FFE0
001C
FFE0
0023
FFF1
001C
FFEF
002B
FFF6
FFF0
FFDE
FFE9
001A
FFEF
FFFA
0001
001E
0010
0000
FFF2
FFE4
FFEC
FFEA
0012
0015
FFEE
001D
0003
FFE4
FFED
002E
000F
FFE6
0021
0003
FFED
001E
FFF6
0018
000A
0022
002D
FFFD
000D
FFE4
FFE8
0010
000A
FFDC
FFEF
FFDB
0022
001F
FFFB
FFE3
002F
FFE0
0018
FFF7
0012
FFE8
000E
0010
FFEE
FFD3
0023
FFE5
FFEC
0013
FFD9
0014
FFF9
0019
FFE0
0018
FFF4
000B
0020
FFF0
FFDC
0014
000B
0021
FFCE
0025
0017
0010
000D
001F
FFF1
000A
0000
FFE5
0030
FFF4
001D
0029
000C
FFE9
FFFC
001F
FFD3
0016
FFF6
FFF6
FFEA
0030
001B
FFEB
FFD1
0001
0028
0000
0018
FFD8
FFE3
0023
FFF3
0000
0013
FFFC
FFE2
FFF4
FFE1
FFDB
0001
0021
FFFE
000F
001A
FFD8
0018
FFDD
FFDC
FFE5
FFDD
FFE6
FFED
FFFB
FFD8
001B
FFFD
0003
0007
FFF0
FFF1
FFEC
FFF3
FFFB
0022
FFE9
0014
0008
0016
FFDA
0012
FFFB
FFCD
FFE3
002B
FFE3
FFF2
FFF9
FFD0
0024
FFED
000A
0021
0009
FFD7
001B
002E
FFCA
FFD5
FFF6
001C
000C
0014
000A
FFFD
FFDC
0018
0014
0006
FFC5
0033
FFF1
FFE3
0004
FFE5
FFC7
0006
FFEF
FFF8
003B
0000
FFE0
FFF2
001B
002B
0006
FFBE
FFF2
0020
FFF5
000B
FFE0
FFDB
FFEA
001A
FFDB
FFF2
0002
FFF6
FFE1
000F
0014
0025
FFF8
FFE3
0011
FFCA
FFDF
FFD8
0001
0010
FFE0
FFF3
0012
FFFC
FFE4
000B
FFDE
0026
0011
000F
FFDC
FFE4
FFF3
FFE0
FFF2
0006
FFFC
0004
FFEB
FFF6
0006
FFDA
0008
FFED
FFD1
FFE4
0017
0027
FFF4
0035
000E
FFF2
0015
0007
0003
0006
001F
FFED
FFE5
FFEC
0001
FFF8
FFF5
FFD2
002B
0015
FFF3
FFE1
0003
FFED
FFF0
002B
FFFF
FFE0
FFCC
0010
0001
FFE7
0002
000E
FFE9
0003
FFE6
002D
0002
FFF6
FFF8
0024
FFD7
000F
FFEA
002A
000C
FFF2
0021
001B
0027
FFF4
FFF2
FFDB
000D
000A
FFF5
FFDE
FFD9
0016
FFDF
0002
001C
FFE7
000F
FFE9
FFEB
0010
FFD3
0024
002C
FFF2
0015
002D
000E
0011
0004
FFF3
FFE1
FFFB
FFD4
000A
FFDE
002B
002F
0021
000D
FFEB
FFE2
0021
0019
FFF9
FFDE
0006
0004
FFD7
FFEF
0006
FFE5
001E
002E
FFF2
FFEC
FFF8
0035
FFF2
001D
FFFB
0016
0019
FFFC
0000
0003
000F
0005
0030
0014
0003
FFF9
FFF9
FFEC
FFD6
0022
002C
001F
FFD7
0010
0007
FFC9
FFF0
0037
FFC8
FFFF
0022
001E
0015
0005
002D
FFE4
0022
FFEF
0017
0035
0013
FFFD
0023
0009
0003
FFFD
FFEE
FFD0
000F
FFE4
0003
001C
FFE8
0032
0012
0008
FFD5
FFEE
FFFE
FFF4
0003
FFEB
001C
FFDD
0031
000C
FFED
002A
FFFB
0018
FFEF
FFFF
FFF1
FFED
0020
FFE4
000E
0025
FFE2
000F
FFDB
0021
0008
000F
0015
FFED
FFD9
0012
FFE4
FFFD
FFEE
001C
0019
FFE9
0014
FFF8
0015
FFE9
FFF5
0012
FFF7
0004
FFDE
FFF5
000E
0007
0024
FFDE
FFE5
0010
002D
FFD7
000D
0018
0009
FFED
000E
FFF3
0029
FFE9
FFE3
FFD0
FFE4
FFF2
FFE1
FFEA
0006
FFDD
002C
0006
FFD1
FFFE
001B
FFD4
0012
0012
0003
002A
FFE0
0021
0026
001B
FFEC
001D
0006
001B
0002
001A
0002
000D
0016
FFDE
0016
0000
FFEC
0021
FFDF
000D
000F
0025
0033
FFE9
0018
001D
FFEC
FFE5
FFEF
001A
0005
FFF8
0025
FFEB
001B
0014
0017
FFF9
FFE2
FFEC
0000
FFFB
FFDD
FFF5
0007
001C
FFDF
FFE4
0034
FFDD
002F
FFD7
FFF4
FFDD
0024
FFF9
FFF5
0008
FFFE
FFE4
0002
FFED
FFE1
0014
001E
0026
002B
FFEF
002B
0019
FFE1
FFF9
0019
0024
001C
0001
0027
0025
FFDC
FFDD
0027
0025
FFE6
0000
FFE6
FFE7
FFFF
FFF5
0025
000F
0013
FFEB
FFEA
FFEE
000A
0022
FFF4
0019
0020
FFEF
001E
0021
FFD6
0001
FFFC
FFE8
FFF6
0021
0012
000A
FFDE
FFE3
FFED
FFE1
FFFF
FFE7
FFE8
FFE2
0016
FFDC
0028
0031
001F
0026
FFE0
FFEB
001B
0009
FFE1
FFF6
FFE4
FFD5
FFF4
FFEA
FFE8
FFED
0018
FFD9
001D
0005
0003
FFDA
0040
0011
FFF2
FFE1
FFE9
000E
FFF0
FFF7
FFDB
FFF7
0015
FFF2
FFCF
FFE5
FFEE
0018
0005
000C
0022
FFE5
FFF4
FFE0
000B
0020
FFFA
000E
001B
001E
FFDB
FFFB
FFEA
002B
FFE7
0029
0015
FFD6
FFF3
FFFE
FFFA
FFF0
FFE4
0000
FFF7
FFF7
0021
001F
FFF6
FFFD
FFDA
0000
0020
0001
0010
000D
0006
001F
FFE7
FFD9
FFE5
0000
0031
0023
FFE7
FFD9
FFCD
0026
001E
002A
FFD0
000E
FFCF
0007
FFD5
0018
000B
000B
FFDB
0033
FFE3
FFCB
0035
001C
0009
001E
FFE2
0004
002B
FFFB
0020
0016
FFDB
FFE7
FFF7
0008
0015
FFFC
FFF2
FFFF
FFE1
FFD3
002B
FFFD
FFD5
FFE1
0013
FFFD
FFE1
FFF9
FFF8
FFF1
FFE0
FFDA
0023
FFEE
0017
FFEB
0004
FFE4
0028
0006
FFE6
FFE4
0029
FFF2
FFE8
FFFF
FFE7
FFE6
0001
001B
002E
002D
000C
0021
FFF6
0029
000E
FFF3
0003
FFF6
FFFB
FFDA
FFDF
FFF7
0009
FFFE
0022
000C
FFFF
000B
FFFD
001E
FFDC
FFFE
FFD6
FFE7
FFF4
0004
FFFD
0023
0020
FFFC
FFEF
001B
FFF7
FFFB
002B
FFF0
0009
FFE4
0001
000B
0018
0007
001A
FFE7
FFE5
001F
0026
FFE3
FFE0
FFDB
0007
0017
FFE1
FFD2
FFF2
002D
FFEB
0012
000F
FFE1
FFF5
0031
FFF6
000C
FFCA
FFF7
002E
FFF9
000E
0008
001F
FFEB
0016
0015
FFFA
FFDB
001E
000E
FFD7
001D
001F
0010
FFE0
FFF4
FFEF
0021
FFD6
FFFD
000A
0016
FFF8
FFE1
0007
FFCF
FFE1
FFF7
FFE0
0018
0028
FFE7
001D
0016
0001
0000
FFF1
0014
0026
000E
FFE1
FFDC
0020
0007
0005
FFF0
FFF0
0019
FFDA
0006
0007
0009
FFF3
FFD6
001F
FFFD
0012
FFFC
0020
FFD1
0021
FFE3
0000
FFE4
0009
FFE5
001A
0002
0014
FFFB
FFC1
002F
FFD3
0027
FFE5
FFF7
0013
FFD6
0023
FFF9
002A
FFCB
001C
FFF7
FFE8
0002
FFEA
FFDC
0022
FFDF
FFE0
0009
FFEC
0020
0026
FFF1
0011
000A
FFEB
0013
000D
0004
001B
0018
0003
0004
0005
FFE4
FFDF
0019
FFDA
FFDF
FFF1
FFF4
0024
0012
FFEF
000B
FFF5
0012
FFE6
001C
FFEE
FFED
FFE0
FFE7
0008
0025
FFDF
FFF5
FFE5
FFF7
0012
FFE4
002E
0014
FFED
0014
0007
FFD4
FFE0
FFDF
FFE0
FFF7
FFCD
FFEA
000A
000C
FFD8
FFE8
0014
FFD6
FFF3
FFE9
0021
0007
0024
000A
001F
FFF2
000D
0011
0019
001A
FFE9
FFDC
001A
001F
0004
0001
001F
000B
0000
FFF0
0019
0003
000A
0002
FFF6
001F
FFFD
FFE9
0011
0011
0010
001B
FFE5
FFF1
0004
000D
FFFA
FFEC
000B
FFDA
FFE1
FFE2
FFD4
FFF5
FFED
FFED
FFE5
FFF7
0004
FFFA
FFE4
FFD5
0022
0018
FFEE
002D
FFEB
0024
0004
FFDA
0012
0030
0021
FFD1
000E
FFD1
0006
0023
FFF1
FFF4
002A
001F
001D
FFFB
0002
FFF7
FFF4
0012
FFFD
FFFE
000A
0025
FFF4
FFD4
FFF5
FFF7
001F
FFF3
0023
000C
0032
0007
0011
FFE6
0027
0000
FFEE
FFFD
FFD4
0024
0030
FFE4
002E
FFF8
0007
FFDF
FFE0
001B
FFEB
0024
FFE7
0002
000F
FFF8
000E
0018
FFDB
FFD4
FFF1
FFD8
FFE7
0023
0036
FFCC
FFE6
000F
FFDB
FFFE
FFF3
FFE9
FFE1
0026
001B
FFFD
FFD3
0000
0015
FFD7
0027
FFF7
FFF5
FFF0
001E
FFDA
000A
FFE5
0020
0013
FFE9
001F
FFF8
FFF5
001B
0023
0018
0017
0010
0004
0014
001D
0000
001C
FFF8
FFFC
0023
FFF0
FFFD
FFEB
FFFB
FFFA
0026
FFF8
FFD7
FFFF
0026
FFDD
0016
FFD4
0007
FFF1
FFF0
0003
FFDC
FFF9
FFC8
001D
FFF1
FFEB
FFF6
0013
FFF2
0009
FFF7
FFDB
FFFB
FFED
0015
0027
002A
0005
0006
FFE8
0008
FFF5
001C
FFD6
0023
0003
FFE7
002B
FFCD
000D
FFCF
001C
0013
FFFE
0028
FFE2
0003
001F
FFEC
0001
0008
0004
FFEA
FFE8
FFFC
FFE4
FFDD
FFD4
FFE3
0004
000C
FFF2
0020
FFF7
000D
FFE7
0028
0005
FFE1
0001
0017
FFF2
001F
FFE9
FFD1
FFF3
000E
FFF3
FFEF
0010
0018
FFD7
FFEA
000A
0004
FFF0
001A
0024
001A
FFFA
000F
0018
FFF4
000B
FFF0
000D
0004
0011
FFE7
0013
FFF7
0024
001C
0019
FFCE
0011
0026
0008
FFF6
001B
0017
000A
0004
0019
0019
0004
FFF1
FFDF
0017
FFE5
FFFB
FFDE
0016
FFF5
FFDF
FFFA
FFD8
001D
FFF9
0000
FFDB
0016
FFE8
0001
FFF2
FFE2
FFF2
FFF4
FFEC
FFEE
FFDD
FFED
FFFC
FFEA
FFFB
FFD9
0010
0011
0007
0015
FFFA
FFDE
FFE0
FFFC
FFD6
FFCD
0031
0022
FFDC
0012
0007
FFFE
FFEC
002D
FFF4
FFDF
FFD7
FFD7
FFF1
002B
FFFC
000B
0008
FFF7
FFFA
0007
FFD8
FFCE
FFEC
FFEE
0022
001A
0003
FFE6
001C
FFF6
FFDF
FFEB
FFFA
0004
FFD7
FFFB
FFF1
FFE7
FFF7
FFFF
FFF5
000E
0017
0005
FFF3
0012
FFF5
0008
FFF8
FFD5
0020
FFEE
0013
FFF7
0013
0011
FFDF
0021
FFE2
FFF1
001A
FFE8
FFEB
0001
FFFA
FFF2
001A
001A
000A
0026
FFD9
FFE9
FFE9
0020
FFF9
0000
0037
FFD0
0014
001E
FFE6
0022
0012
000F
000E
FFD4
0001
FFFF
FFFF
0021
0010
FFE5
FFE1
002D
FFEE
0000
FFFF
002F
000F
0048
0009
FFC9
FFF6
FFDE
0005
0018
001C
FFD5
0035
FFDA
FFFF
FFFE
FFE2
0023
FFDD
FFED
FFF1
FFE2
FFD3
0019
000B
001B
FFF9
0003
0029
FFE5
0023
FFE9
000E
FFFD
000F
FFEE
FFFB
FFFE
0011
FFDA
FFDB
FFFF
001B
FFEF
000D
FFF5
FFE2
FFE7
FFE6
0014
FFD2
0021
0008
FFFB
0001
001E
001B
FFEF
FFFC
FFE9
FFD7
0003
0037
0025
002D
0004
000B
0006
000D
0002
0015
FFE3
FFFD
FFEE
FFD4
0024
FFE8
FFEA
001F
FFE3
FFFF
001F
FFD8
FFF1
0002
0003
000F
0024
0024
000B
FFFC
001E
001F
001B
0002
0018
0001
0017
000E
0001
000A
FFF5
0017
FFD9
000E
0008
FFEE
0000
0013
000D
0027
FFDB
0003
0013
FFEE
0010
0030
FFF7
FFF7
0001
FFEA
0004
FFE1
FFDF
FFF8
000C
000A
FFF9
FFE7
FFD2
FFED
FFE9
0028
FFF5
FFE2
001A
FFDB
FFD4
FFDE
0022
FFD0
002D
FFFF
FFFF
000D
0006
FFDF
FFF1
FFFD
FFF0
0015
0002
FFF7
FFFB
0001
0020
FFDA
FFF4
0023
FFF3
FFE1
000E
0009
0001
FFDE
FFD8
0017
0026
FFFE
002B
0005
000A
FFE3
001A
FFE2
0024
0000
FFD4
FFE1
0016
FFD7
0011
FFF9
FFFA
0015
FFE4
0026
002C
FFFB
000F
0014
FFD6
FFE4
FFDB
0016
FFD4
FFFC
001D
0003
FFF9
FFEB
FFF1
FFCD
0025
0002
FFFC
0012
002D
FFDE
FFF8
0023
0024
000D
000B
002D
0024
0036
FFDC
0023
0010
FFEA
FFD8
FFDF
FFE3
0004
0002
FFF6
0002
FFD0
0018
FFF3
0001
001C
0001
0004
FFF3
0015
0032
0008
0022
0024
FFD6
0025
FFFC
FFFF
0004
0023
0034
FFE3
001C
FFE4
FFEB
0007
0003
0021
FFEA
001C
FFDB
0000
FFFD
FFFD
002F
FFE5
000B
000F
0016
0002
FFD8
FFE6
FFCC
FFD4
FFD6
0016
0012
FFFB
FFFA
FFCE
0005
FFF5
0017
001E
0003
0003
0020
0017
FFD4
000A
FFFD
0025
000B
FFEE
FFFB
0015
FFF4
FFE9
FFE7
0016
0026
0013
0005
FFE7
0001
FFD7
FFDE
0015
0004
FFF0
0013
FFE0
FFE5
FFE8
FFEF
002C
FFFE
001A
FFEB
FFF4
FFEB
FFDF
0017
FFEC
0000
0013
0027
FFF2
FFFC
0010
FFF1
0018
002B
0000
0031
002E
FFD5
FFF5
0029
000B
FFFA
FFDC
FFEF
0024
FFE0
FFDA
001F
FFEE
FFF7
0021
FFD4
FFE2
FFE8
FFE0
0026
FFF4
0019
002D
FFF0
FFF2
0015
0034
0019
0027
0004
0006
FFF8
FFF6
0001
FFDB
0000
FFF3
001B
FFF4
000A
001D
FFFC
0015
000F
001E
FFD9
0017
0002
0032
0028
0006
000A
0014
000E
FFDF
FFEC
FFEF
0016
FFEB
0000
0025
002D
FFE6
FFF1
0007
FFFE
FFED
FFFF
FFEE
000E
000C
FFE7
FFF0
0003
0005
0000
FFDE
000E
FFF2
0028
0011
FFF3
FFD5
0001
FFE6
FFD1
FFDD
0015
FFF6
0014
000F
0024
FFEC
FFF8
FFD8
FFD7
FFE0
FFF2
0023
FFF3
0000
FFD8
FFEA
0008
0023
0005
0005
FFE7
0021
FFE0
0010
0007
001F
000A
0005
FFF4
FFE5
0011
0018
FFFF
FFFF
0008
FFFB
FFF2
0001
FFF5
FFE3
FFEC
000D
FFFD
FFF0
0016
001D
002B
FFD9
0016
FFE6
FFE0
0011
0007
FFDF
0027
0000
001A
FFF9
FFE9
FFF6
FFEB
0010
0021
0014
FFEC
FFD7
FFE5
FFD8
0003
0017
FFD8
FFF1
0027
FFFF
0015
0024
002A
0020
000D
0008
FFF1
FFC3
0022
FFDB
0020
FFDD
0020
FFEF
001C
001B
002C
001D
FFCB
FFE7
0014
FFE0
0008
0023
0008
FFED
001D
FFEC
0027
FFF4
FFDA
0018
FFE1
000C
FFF2
FFE9
FFE2
000A
0017
000E
FFE4
001B
FFFB
0005
000B
000C
FFE7
FFF5
FFFE
FFDD
FFF9
0010
0001
001E
FFE7
FFF7
0000
002C
FFFA
001A
FFE8
FFD9
0024
FFF6
FFEA
0005
0024
0026
0021
FFEE
FFEB
FFEF
FFFD
0015
001F
002A
FFEE
002D
FFDD
000F
0012
0000
FFE3
FFED
002A
000F
FFFA
FFFD
FFF0
FFF5
001F
FFFE
0008
0014
FFFD
FFFF
FFD4
FFE6
0013
0026
0021
FFEB
FFEA
0014
FFF4
0019
FFD5
FFFA
FFF0
0023
0010
0021
000B
0022
0025
FFF8
000C
FFDC
0009
FFED
000B
FFE8
FFEF
0010
0007
001A
0015
FFFA
FFD8
0017
FFD8
FFE3
FFED
FFD4
0028
0007
002B
0008
002B
0012
001B
000E
FFEE
FFE4
0010
FFF2
FFF6
0022
0012
FFFD
FFF4
FFFB
0000
0003
0025
0029
FFFF
FFF3
0000
FFE7
0026
FFE9
FFE7
0006
0009
FFEE
0001
FFDF
FFF6
000D
FFD7
FFDA
FFFB
0012
FFEE
FFF2
001A
0005
0001
0005
0012
000D
FFE8
0021
0001
0023
0020
000D
FFEB
FFF1
0025
0007
0001
FFD3
FFFE
FFFC
000A
0000
FFD3
0027
0030
0027
0006
FFEE
002C
FFF2
0023
002A
0008
FFD9
FFEF
FFE1
FFE2
FFE8
FFF9
FFF2
0016
0002
FFF6
FFDD
FFF6
FFEA
0029
001B
0020
FFD8
0027
0009
FFF4
000C
000C
001F
FFFC
FFDF
0027
FFFA
FFE8
000B
FFD9
FFEE
FFFC
FFFE
FFF0
000E
FFF6
FFF4
FFE6
000C
FFE5
FFEC
0000
FFE2
0004
FFED
0000
FFF2
0014
0023
FFFA
FFF2
FFD2
001D
0029
FFE6
FFF9
FFF9
0027
002A
0018
FFFB
0016
0025
0030
0001
FFDA
0028
0022
0012
FFFA
001D
001E
FFEF
FFDC
FFEB
000A
000D
000B
FFD5
0017
FFE3
001D
FFDA
FFE6
FFF4
FFE0
FFEF
FFDD
0017
FFE8
0009
FFF5
002A
FFEB
FFE9
000A
FFEC
FFD6
0013
FFE6
0014
FFE1
FFFD
FFF4
0025
FFE4
FFF6
FFDD
001F
FFD8
FFE9
FFE1
0014
0020
0026
FFF7
FFF3
0015
FFEA
0017
FFF5
0009
0021
001F
0004
FFEA
0024
0000
FFE1
FFFD
002C
001E
FFEA
FFD3
FFF6
0014
0000
FFF2
0002
000E
FFEC
FFFF
FFD8
000D
0000
FFD9
002C
001B
000E
FFD0
0009
0010
FFD2
002A
000D
FFEB
FFF7
FFEB
FFE3
001B
001D
FFE5
0004
001C
FFF8
FFDB
FFF6
0014
000F
0024
FFF3
0022
0011
FFE3
FFDA
FFF9
0008
FFF4
FFEB
FFDC
0011
FFF3
0024
0003
000F
0006
FFD8
FFE4
0013
001B
001D
FFE1
0009
0020
0029
001C
FFF6
FFE1
FFFD
0011
002E
FFF4
FFD5
0010
FFF3
000E
FFEA
FFD2
0012
0028
002B
FFD6
FFFB
0014
0007
FFDF
FFDA
000C
FFD8
0016
001F
0004
FFDD
FFD5
0000
0011
FFEF
0013
FFDB
FFDF
FFFC
FFE9
0023
FFF3
FFE4
0011
FFDA
0022
0013
0018
FFF1
FFDD
FFF2
0009
0002
0017
0015
000D
FFFB
FFE9
FFE0
001F
001C
001C
FFDF
FFF3
0015
0006
0016
0013
FFF3
001B
FFD2
0013
FFDC
000A
002C
000F
FFF8
0009
FFD7
0003
0021
0003
0028
FFDD
0009
000C
0012
FFE1
000C
FFD3
FFE9
FFDD
0004
001F
000D
FFE9
0029
0027
FFD5
0022
0026
FFE1
0019
0027
