FFE3
FFEC
FFEC
FFFD
0009
FFD9
FFDF
0014
FFE9
0016
FFE3
FFEF
FFDB
FFF9
0005
FFEE
FFFF
FFDC
FFFD
FFF0
002A
000A
FFDD
0019
FFDB
FFFD
0018
001B
0003
0020
0020
FFD8
0017
FFFE
FFFE
0025
FFF6
0028
FFDE
0024
0023
FFF8
FFF0
FFF4
FFF5
0025
FFF7
002E
FFDE
0027
0007
0023
0024
000B
001B
FFCB
000A
FFE9
FFDB
0009
000B
FFD3
FFFD
FFD5
001A
FFEA
0017
0033
FFD2
FFFD
0048
FFEB
0029
0008
0029
0010
FFF6
FFE2
001E
0019
000E
FFEE
FFDF
0016
0021
FFDE
FFE2
FFF4
0021
0005
FFE7
002F
FFDF
0015
FFE7
FFF9
FFF2
FFFF
0018
0000
000B
001C
FFEB
0002
FFFA
0025
0013
0005
FFEE
0024
FFF6
002B
FFE9
FFDC
0034
FFF8
0006
0028
0021
0013
FFF3
FFCC
0009
FFFA
0011
0001
0005
0012
FFE4
0017
FFD3
0018
FFEC
0008
000C
FFE0
000B
001B
000A
0016
000D
0054
FFE3
FFFD
000D
0027
FFE5
0008
FFE0
001D
0006
0000
FFF7
FFF1
FFE2
0026
FFD9
FFFE
0014
FFF3
000F
FFDB
000F
FFEB
000F
FFEF
FFF0
FFEB
0022
0018
0027
FFF1
000E
0019
0015
FFFE
0001
001F
0002
0021
001E
FFDF
FFD5
FFD9
FFD9
FFFF
0006
FFD7
0006
0016
FFF1
000E
0008
FFE7
0028
000E
001A
000E
0024
0017
0021
FFF0
FFE3
000A
FFF5
0015
FFE5
FFDB
002A
0012
FFE0
FFD6
FFFA
000C
0012
FFF5
0018
0016
0028
FFFD
FFEA
0014
FFE5
0004
FFD7
FFFA
FFFC
0017
001E
0011
FFDC
FFDE
FFF0
0011
FFEC
FFE9
000D
FFD0
0008
FFE1
FFE7
FFF9
FFEA
FFF6
0020
FFFA
FFD3
FFE4
FFE1
0015
001B
FFF5
FFE7
0002
FFEC
FFEB
0032
0025
0031
000D
FFE6
FFEB
001C
FFD9
0025
FFD2
FFE3
001E
0012
0018
0005
001B
FFE4
FFF1
FFCC
0000
FFFB
FFD7
001F
FFFA
0033
FFEF
001B
0043
0015
0021
FFE5
FFD7
FFF2
0018
FFF7
0002
FFEB
FFF2
FFEA
0019
0015
FFEC
0025
FFEC
001C
000A
001D
FFF2
0015
FFDE
FFE9
000F
000F
FFDB
FFEB
000C
0023
000A
0021
000E
0018
FFF3
0006
000F
FFD7
FFD5
FFE0
001F
0000
FFD5
FFE7
001A
0023
0004
FFF7
002E
0011
FFE6
FFF8
0023
001D
0004
0003
FFF5
002F
FFD3
0008
FFD8
FFE1
0013
FFFB
000A
FFD0
0029
0027
001D
FFD8
002F
001C
FFF7
FFDC
001F
001D
0023
FFEB
FFE3
FFFC
FFDF
FFD8
FFE0
FFE8
FFDE
001B
FFE3
FFF5
0011
FFF9
000E
FFF8
001F
000D
FFE4
0016
FFE9
FFE8
FFF0
FFF5
000A
0006
FFE9
FFE9
FFE9
001E
0000
FFF9
0023
FFF7
FFD6
FFF0
0029
001A
FFCE
000D
000E
000A
0029
FFDD
FFE4
0020
000F
FFDC
FFFC
FFE4
001E
002E
000F
FFFA
001E
002A
0036
FFF3
FFFF
0026
0035
FFEE
0021
0019
FFF4
0023
FFD0
FFDB
FFEA
FFEC
0020
FFF2
000A
FFE4
FFFF
FFE4
0021
0023
FFF3
0018
FFEA
0007
FFEE
0004
FFDC
FFE0
0015
FFE3
FFE2
FFF3
000B
FFE2
0021
FFEA
FFE7
FFEC
FFE9
FFF4
FFDA
FFFE
FFCF
FFF4
0011
0021
0022
0024
0008
002E
000B
0034
0031
FFD1
000E
FFEC
000C
FFE1
0021
FFF4
002F
000E
0009
0024
FFEF
0025
000D
FFF2
FFF8
000E
FFEC
0014
FFF1
0010
001A
000D
002D
000F
0022
0008
000A
002A
FFE9
0020
0010
001B
0009
FFE2
FFF9
0025
FFE2
0000
0001
001E
FFEB
0021
000A
0001
0003
000F
FFEF
FFFD
000A
0000
FFF8
0023
000B
FFDF
001A
FFE5
0013
FFD6
FFF7
FFF5
FFF9
FFF5
000C
000F
FFDE
0006
0027
FFD7
FFFD
0009
FFDE
FFF5
FFF5
FFFD
0030
0018
FFFD
002F
002E
0027
FFF1
FFFD
0007
FFDA
0003
FFF6
FFFE
FFF0
FFF3
001B
FFF0
000A
000D
FFE3
FFE7
002C
0044
FFDC
FFF2
0005
FFDC
FFD8
001A
0020
0016
000E
FFFB
0002
001B
000A
001F
000C
0029
FFF3
001C
0004
FFF4
FFF0
0008
FFE5
FFEC
0029
FFF6
FFF9
0007
FFF3
FFEA
0023
0016
000D
FFEA
FFF1
FFDE
FFF8
0007
FFD2
0010
FFE5
FFE0
FFEF
FFCC
0039
FFF0
FFEC
002E
FFBD
FFD8
0004
FFEA
FFFF
0002
FFDF
0015
FFEC
000C
FFF3
002B
0035
0038
FFED
FFCE
003C
FFFE
FFF1
0021
FFE2
FFC6
FFB8
FFD9
000F
000B
FFF8
001F
FFEE
FFEC
FFEA
FFDD
FFDA
FFEE
0006
0015
001D
FFF8
FFE7
FFF4
000D
0010
FFEC
0022
0026
0013
0020
FFE5
FFF7
FFFE
001F
FFE6
0019
FFE0
002A
FFE5
FFD8
FFFB
FFF2
FFDC
FFFE
0006
0022
0008
0012
FFE3
FFE6
0026
FFFA
FFD0
000C
000A
0001
0005
000E
FFE5
FFF7
FFDD
001D
0005
FFDA
0008
FFEC
FFD1
FFF7
FFF0
FFF7
FFCE
0023
000C
000A
FFE5
001E
002D
001E
FFE7
000E
FFD8
0018
0019
0016
FFF8
FFE3
FFF3
FFE0
FFF0
0027
0018
000D
0005
FFFA
FFEF
FFE2
FFE8
FFDD
001F
0006
FFDD
0010
FFE6
0029
0003
FFDA
FFED
0027
0019
FFEC
0005
FFDF
FFEB
000D
0022
FFE3
001E
0021
0018
0013
0014
0001
0013
000D
FFEA
FFFA
FFD5
0018
0016
FFF8
FFEC
FFE9
0029
FFCF
0016
0004
0027
0037
0009
FFEA
FFF8
0012
0006
0034
000D
FFEB
FFF4
001C
0020
001A
0004
FFFB
001C
001C
0020
002E
FFDA
0019
FFE9
0014
FFFF
FFF9
FFDE
0004
FFE6
FFE8
0004
FFD6
FFE4
FFE4
0020
FFDA
002A
000B
FFEF
0014
0001
001C
FFE8
0017
FFDC
0017
0021
FFF5
000B
000F
0000
002B
FFDC
FFEA
FFD5
0017
FFD5
FFCB
001D
FFCF
0010
000C
000E
0002
003A
002C
0019
000F
FFDD
0032
FFE1
0018
001B
0035
001E
002E
FFE7
FFFD
0026
0026
FFE0
FFD1
FFE4
FFF4
FFE0
FFEE
FFF8
FFF1
FFE4
FFDF
001A
FFFC
FFEB
FFE4
0005
FFEA
0007
001C
FFE0
0020
FFE8
001D
FFEE
0010
FFF7
0011
000C
FFF0
FFF9
FFE5
0013
0019
FFEE
FFDA
FFDC
0000
FFF7
FFDA
FFE8
001E
FFEE
0014
0008
0026
0031
FFEB
FFEE
FFFC
000C
0022
0015
0019
FFC8
FFF6
FFDE
0016
0003
0000
0020
FFD9
FFDF
FFDA
0017
FFE0
001D
FFF6
FFEA
FFE7
FFDB
0032
FFF2
000B
FFF5
FFDC
0024
0011
0003
0007
FFDE
FFEA
000C
FFF0
FFD7
0025
0005
0008
FFE9
000B
FFF4
FFD6
FFE1
0014
FFF7
0025
0027
FFF4
0007
FFF0
0009
0009
0018
0012
001D
0026
FFF8
0026
FFF9
FFF7
0016
0018
0003
FFFD
0005
0009
0035
000F
FFF5
0004
0004
001A
FFF5
FFE9
0032
FFF8
0000
0006
FFF7
FFF9
FFCA
0026
0031
FFD7
000E
FFD5
FFFF
FFE7
FFF8
0003
0019
FFFA
FFCF
0015
0005
002F
0017
FFFC
FFE3
FFD8
FFE0
0001
0010
0028
0028
FFFA
FFDF
0012
FFEA
0007
000B
0028
0010
FFF6
FFF0
FFD8
0005
FFDC
0003
0029
0002
002D
001A
FFDE
FFE6
0020
000B
0011
FFDB
FFF0
001E
FFE2
FFF3
001C
0016
FFD8
0006
FFE6
000A
0016
FFD4
FFF6
0020
0026
FFD5
FFED
FFE9
0033
FFFD
FFDF
0002
0017
000C
FFF4
FFE1
FFDE
000C
0024
0011
0005
FFD9
0021
FFF7
002B
FFE8
0014
0000
FFD5
0000
FFDD
0024
0001
001A
FFDB
0002
FFFC
001C
FFE4
FFFB
FFE2
FFD8
0018
FFE7
0017
FFFF
000D
FFFA
FFF4
FFE3
0027
0007
0016
FFD7
FFFD
FFFC
000B
0013
FFF9
FFF9
FFE7
001B
0019
FFF7
FFF0
001A
FFF1
FFE2
FFDC
FFDC
0022
0005
FFEB
000A
0025
0012
002D
0035
FFF6
001C
FFF4
FFDB
001E
FFD2
001A
0030
000A
0008
0013
FFFE
FFEE
FFDD
FFFE
0013
0033
FFE1
002A
0019
000F
FFE4
FFE6
FFF1
0024
0022
0022
FFFF
000A
FFE3
000B
001C
0008
001A
FFEE
FFF6
FFFD
0030
0032
0022
001A
0010
FFFC
FFF2
0001
002C
0009
FFEE
002E
FFEE
FFE3
0008
0004
FFD7
0004
0031
FFE7
0002
FFD6
FFEE
FFE3
0024
000B
0039
FFDD
FFF6
0032
FFDA
FFD6
0020
FFD1
0015
0017
0022
0021
001A
0003
0006
FFDB
002C
0013
FFFD
0035
FFF5
FFCD
FFD9
0028
FFCF
FFF3
FFE2
0017
FFF5
002E
0027
FFFD
FFF4
0001
0006
FFFE
FFD8
FFE6
000C
0019
0023
FFF6
0023
FFF2
001C
0019
FFF0
FFFC
0017
FFF3
0002
0008
0020
FFE6
FFDE
0004
0002
FFF8
FFEE
FFDD
001E
0004
FFDC
FFD3
0029
0022
FFE8
FFF2
001A
001C
FFE8
0003
FFFC
0008
0014
0014
0020
FFFB
002E
0018
0008
0034
FFE3
001B
FFED
0011
0029
FFDF
0012
FFE6
0002
0017
002E
0022
0000
002A
0004
0016
0011
0034
FFFB
FFEB
000B
0017
001A
001C
FFF4
0013
FFE8
0001
0006
000B
0022
001F
FFDB
0009
001A
0001
FFF5
FFF9
FFDE
0015
0010
FFFB
0001
FFD2
0009
FFE4
000C
0000
FFEC
0012
FFF7
0023
FFDF
FFE8
0026
FFF5
FFE3
000C
FFDE
FFF9
FFCF
0002
0027
FFCF
000B
FFDD
FFD1
000C
0030
FFFC
FFE0
002C
000F
0003
FFDC
0030
FFCF
FFF6
000F
0003
0007
0008
0001
0002
0032
0005
001F
FFED
FFF7
0036
FFEE
FFF7
0009
FFF2
0005
0023
001C
FFD8
0011
FFE3
0015
0006
FFE0
001C
001F
0029
FFE7
0019
000E
0014
FFD2
FFE4
FFDA
0007
FFE5
0021
FFF2
0001
FFFA
0004
0002
0008
FFE0
FFE7
FFE3
001E
FFD9
FFFD
0005
FFEB
FFF7
FFD8
FFD5
FFF4
001C
FFEE
FFF6
FFF0
FFD8
FFE6
0003
FFE4
0007
FFD7
FFE0
000C
FFF3
FFE1
0027
001C
0012
0012
FFDA
FFCE
0035
000C
001E
0012
FFD3
FFE4
FFF1
FFD5
FFDE
000F
0010
000C
001D
FFED
FFE3
002B
FFD0
FFF0
0020
0009
FFD2
002D
0013
0013
FFD2
FFD4
0020
FFF4
0005
0014
FFE3
FFFF
FFF0
FFEA
FFDD
FFFE
FFF6
001B
0003
001F
FFDF
FFDE
000A
0008
FFFA
FFEE
001E
001C
FFD6
FFF1
0012
002C
0002
FFEA
001D
001C
FFF2
0004
0029
001F
FFEC
FFF6
0026
FFF8
FFD8
FFE9
0031
000B
002B
0013
FFE5
FFF4
0010
0030
000F
FFD6
0000
0007
FFEF
0007
001D
000F
0013
FFF2
0006
FFEF
001B
0008
FFF1
0025
0001
001F
000C
FFDB
FFFB
FFD3
FFD4
FFE4
FFFE
0019
FFE2
0007
FFF4
000E
FFD8
FFF0
0003
0016
FFEC
FFEB
002F
0010
FFE4
0018
FFDD
000A
FFFC
FFE3
0000
FFE3
0018
0007
0015
0032
FFE8
FFEA
FFFB
FFE4
FFFB
0022
FFEF
0019
FFDE
002E
001C
FFF5
FFDD
002F
FFF9
FFD3
0024
FFD0
FFEE
0026
FFF9
FFDB
FFFD
0019
FFF4
0005
0026
FFEF
0011
FFF2
FFEF
0004
001D
001D
FFFB
FFE1
FFE6
FFEA
0012
FFE5
0022
0022
000D
0025
FFE0
0009
002B
0013
0003
0022
FFF9
FFE9
FFF2
0003
0010
000D
0017
0014
FFCE
0004
0009
FFDA
FFDE
FFF2
000B
000A
FFFE
001B
0001
000A
FFE5
FFFF
0023
FFF6
001A
0009
001D
FFFE
FFFF
FFDA
0024
0030
0025
FFEF
0001
FFFB
0021
FFFA
0008
FFE8
001D
FFFA
FFF1
000F
0013
0059
002A
FFE0
FFE2
FFE5
0027
FFE4
0001
0010
001C
0012
FFF5
FFE2
FFDE
001A
FFF3
FFE4
0026
FFF8
FFFD
FFE5
0019
0028
FFDA
FFDE
0016
0011
0008
FFFC
FFFB
FFE7
FFE6
FFE8
FFF6
FFFA
0027
0021
0015
0000
FFFA
0000
0028
FFD4
FFDE
0011
0030
FFDE
0007
0025
FFE4
FFEF
FFD5
0016
0008
FFF7
000D
FFF6
FFE6
0000
FFE8
FFDF
FFF0
0011
0002
FFD5
FFCB
0032
FFF9
FFF0
000E
000F
0025
FFF0
FFED
0011
000B
001E
FFF2
FFE6
FFFD
FFF2
0001
FFF3
FFCC
FFF6
FFFE
FFE2
0016
FFE6
0019
001C
FFF7
FFED
FFFA
FFF5
FFEF
0011
0000
FFE1
0010
0014
FFFF
0019
0015
FFEB
0005
FFFC
FFFB
0015
0018
0028
0027
0013
0017
0013
000B
0016
FFF4
FFEE
0008
FFD9
FFFB
0013
FFFC
0025
000D
FFEA
FFD0
0001
FFF3
FFFA
0015
000A
FFEF
0013
0003
0022
0017
0025
FFFE
0028
FFDD
003F
FFE0
0017
FFF4
0024
FFEE
FFE2
FFE9
0025
FFF6
FFE1
0002
FFE0
0014
FFFB
0005
002C
FFEC
FFEC
000A
FFDC
FFD2
000D
001C
0021
000D
001F
FFEB
FFF6
0024
FFF6
FFD7
0000
FFF8
0033
0024
001B
001A
FFF9
0012
0005
FFDF
FFEC
0003
FFD8
FFFD
FFFA
000C
FFEA
FFDC
FFE7
002F
FFCF
0016
0012
0031
FFFD
0008
0011
0004
FFE6
0033
FFEA
FFD3
0029
0000
FFF3
000C
FFFB
FFE6
0013
0004
0024
000D
FFF1
0008
0015
0007
FFFC
FFFA
0004
FFDF
FFE0
FFEF
FFFD
FFDC
FFFD
FFF6
0023
0011
FFEF
000D
0001
FFEF
FFEC
001F
FFED
0006
FFF6
FFF6
FFFB
FFFC
0025
0014
FFF0
FFEF
0022
0013
FFD8
0007
FFE4
FFE8
FFF8
0015
FFE8
FFE6
002C
FFFC
000B
0021
FFF4
FFFD
FFFC
0027
0014
0035
001C
FFD5
002A
FFC4
FFFA
FFD1
FFE4
FFF6
0034
0000
FFC5
003A
FFCD
000B
FFDC
0008
FFF2
FFDE
0015
FFF2
FFFF
0004
FFF7
FFEE
000B
0011
0022
0019
0018
FFD6
FFF8
0019
001E
001C
FFEA
FFEE
001F
002D
0020
FFF8
FFE1
FFFA
FFE3
0000
FFF1
FFDD
FFF4
FFF0
001C
FFE0
0005
002A
001C
FFE9
FFDA
0015
001A
0001
0012
0010
002B
FFFA
FFE4
FFED
0014
FFE0
001D
FFD2
001C
0006
FFEC
FFD6
FFCD
FFFF
FFF4
FFFE
FFD5
0001
FFEC
0014
FFDC
001F
0033
FFE0
0010
FFE3
FFF6
001D
FFE6
FFF5
0024
FFE5
FFF8
FFE7
000A
FFFF
FFD9
FFED
0017
FFDE
FFDD
000E
0018
000F
0003
0017
FFEF
FFE1
0019
FFE3
0023
0002
FFEE
0004
0010
0009
0010
0009
FFD4
001D
FFF2
FFEA
FFD7
0028
0024
FFE4
FFED
FFE0
0023
001E
FFCA
FFFD
FFDE
FFD5
0029
0000
000C
FFCD
FFEF
FFFD
FFF5
FFED
FFFC
FFED
FFE6
0002
002C
FFF2
FFEA
0008
0001
0013
0024
FFF4
FFF5
FFE3
0003
001E
FFFD
0007
FFFD
FFEE
0017
FFEB
000B
FFE5
0019
0008
FFFF
FFF6
000E
FFF5
FFF2
FFFC
FFE7
000D
0023
0001
0021
FFE3
0024
0023
FFFE
0015
0006
FFD9
FFE1
FFFD
FFDE
0027
FFE7
FFFF
FFD1
0011
FFEC
FFF1
0005
0028
FFF9
FFDE
000D
0037
FFDA
0026
000E
000A
FFDF
0010
FFFC
FFCA
FFEF
0009
0025
0004
001A
0004
FFF8
0010
FFFD
FFDE
0016
0035
000F
0019
FFF8
FFE4
0017
002E
0024
001D
FFD9
FFFA
FFF5
FFFC
0011
FFEC
0008
FFD3
FFF8
FFFB
0016
FFDE
FFE5
FFD2
000E
0006
FFE0
FFE7
FFD3
FFE6
FFF0
0025
000E
FFEC
FFE0
000B
FFF8
FFD5
0009
FFEC
FFE7
FFE4
0020
0011
001D
000F
0013
FFE4
FFEE
FFD9
FFDB
0000
0019
FFE4
FFE9
0016
FFF9
0012
000D
0015
FFD0
000E
0021
0024
FFFF
FFDF
FFE3
FFD7
FFE1
FFEA
0004
0018
0029
FFD9
FFE2
FFF8
FFF6
FFFC
FFCA
0038
FFC2
FFF8
001B
0006
FFE1
FFE4
FFD9
0026
0016
0010
0021
0007
001D
001C
001C
0028
FFF2
000C
001A
FFEA
0021
FFD1
0008
0006
0014
000F
FFFE
0010
0026
0021
FFF0
FFE9
0006
FFF2
0022
0007
FFE5
FFF5
FFED
0019
0014
0008
FFF5
FFD0
FFD4
FFF1
0020
001E
FFED
FFF9
FFE9
0000
FFF4
FFFE
000A
0034
FFE0
FFE2
0031
FFE8
FFEC
FFF4
0024
0007
FFEF
FFFD
FFE6
001B
FFF2
0001
FFF6
FFDA
001C
0023
FFF7
001C
FFE8
0013
0027
0000
FFF1
0001
FFDE
FFFC
FFD5
FFDF
0007
FFE9
FFFC
FFFF
FFE5
001F
0005
FFF4
FFF0
FFF3
0021
FFDA
0029
0020
0012
FFE6
001C
FFD9
0009
0021
0008
FFDB
FFE8
FFF5
0006
0018
FFDD
0020
FFFE
0020
001E
FFFC
0028
001B
0010
000A
0034
0006
FFDB
FFDD
0035
0030
0004
0018
FFF8
0038
0034
000D
FFD4
FFE1
0002
0006
0032
0022
FFE6
FFEA
FFF2
FFDF
FFEE
0021
FFEA
000D
000C
000A
001D
000C
FFF5
0014
FFCC
0010
FFF8
FFDA
FFF7
001E
001F
001B
FFD5
FFF8
0017
001D
0019
0013
FFEE
002F
0000
0025
001B
FFEA
FFE6
000F
FFE3
FFF3
0014
0007
0015
FFFD
000C
0013
FFFA
FFED
FFF1
FFD8
0008
FFE2
0011
FFDB
0010
FFEB
0006
0002
0029
0000
0020
002D
FFDA
0012
0000
000F
001D
001F
FFDF
FFCB
0015
FFCC
0025
001F
001D
001C
FFF5
0020
0007
0025
0020
0019
FFFE
000A
001B
0015
000D
FFFE
FFEA
0020
FFFD
FFE2
0000
FFF6
0005
FFEE
0012
0017
0009
0003
FFEB
FFE0
FFEB
FFDE
0010
0008
FFFE
000F
FFE4
FFF3
001C
FFFB
0009
001C
0025
0012
0017
0016
0024
0016
0008
0014
FFE2
FFE9
0034
001C
0025
0029
FFF7
FFDF
FFF7
FFE8
FFE6
0001
FFD0
FFF3
FFF6
FFE9
FFD9
FFFB
000D
002C
FFCF
0031
001D
000E
FFE0
0028
FFE9
FFE5
FFEE
FFF5
FFDF
001C
0011
FFD8
0000
0011
FFEE
000A
FFFD
0028
FFF7
001F
0023
FFE3
0005
FFD9
FFDB
0014
FFEC
FFE4
0007
000F
0004
001E
001C
FFEE
001C
FFDB
FFEB
FFE7
FFFC
0000
000A
0021
001C
000D
FFE6
FFFB
FFFD
0024
FFCF
0019
0017
FFF4
0010
002B
FFFA
FFDA
FFD8
FFF6
FFE9
0013
FFF3
0012
0027
FFFC
0033
FFC4
FFFF
FFF5
FFF6
000A
FFEC
FFF6
FFDC
0010
FFE3
0027
FFFC
0010
0023
FFF6
0013
0021
0008
0023
FFFB
0006
0010
0012
001E
FFE4
0012
FFE8
0007
FFEA
0029
FFF6
0010
000D
0016
001A
0019
0023
FFFA
FFFC
FFE7
0028
0018
0000
FFDD
FFEC
000C
FFF9
0022
FFF6
001C
0000
002D
FFEB
0003
001A
FFF1
FFE3
0016
0005
FFDF
0004
001C
0002
FFED
FFCC
000F
FFF9
FFD4
0001
0002
0023
0010
0014
FFCC
0033
0010
0019
0027
0026
002E
FFF7
FFE9
FFDC
001D
FFEE
FFD9
0018
FFEA
FFD8
000A
FFF7
FFE8
FFDA
0011
FFE0
0020
0008
0001
FFFA
0007
001E
FFED
FFE7
FFFD
000C
FFF2
FFD6
FFFB
0017
FFED
FFEF
0001
FFE9
FFF5
0028
FFE0
0021
FFE5
002C
FFDF
FFE3
002C
0018
FFFA
FFFB
0021
0010
FFEB
FFDA
0033
FFCD
000A
000F
002B
FFCB
001B
0030
FFF8
FFDB
001D
FFE1
FFEE
0015
002C
FFDB
001A
000B
FFF9
FFF5
0006
000C
0005
FFE6
FFE3
0010
FFF4
FFF7
0007
001A
FFE1
FFDB
FFE5
FFFE
FFF2
FFDF
000C
0009
FFFF
001B
000A
0020
0009
FFF7
FFFB
001D
FFE7
FFF6
0018
FFF2
0016
FFF5
0023
FFED
FFDF
0014
0015
FFFD
0010
FFF4
001E
FFE4
0018
FFEE
0010
FFCC
0012
FFCD
000B
FFE8
001B
000B
0009
FFFF
FFF7
FFC5
0010
FFFD
0026
0034
001C
0005
FFE9
000E
FFD3
0020
FFE8
000D
0031
FFE4
001D
FFC6
001B
FFFC
FFF0
FFEC
FFEB
FFEF
FFF9
FFE8
0020
0010
0020
FFEB
0006
001B
FFE0
001C
FFF1
0005
001B
0017
FFEF
FFE6
0002
0019
0002
FFEF
0019
FFDC
FFF7
0008
000D
0025
0020
FFF2
FFEB
0006
000F
FFF0
0007
FFDC
0000
FFD2
FFFE
0019
000E
FFEA
0028
FFFC
0022
000F
0004
FFDA
000B
002F
001E
FFF6
FFD1
001A
FFF3
0026
0021
FFD7
000B
0018
000F
0024
0026
FFEA
0032
FFF9
FFE6
FFF2
