FFEF
FFFA
0002
0018
FFE0
FFE2
0005
0017
0003
0021
FFEF
FFED
FFFB
FFEE
FFF5
0014
002D
FFF7
FFDF
FFF4
FFE6
000C
0028
FFEA
FFF8
FFD6
FFEC
0020
0009
FFF0
FFE0
FFE5
FFEF
0010
FFE5
FFF2
FFF9
FFDC
FFFB
0005
FFF3
FFFB
FFED
002D
0031
FFFC
FFFA
0017
FFF8
FFF6
FFE4
000D
FFF8
0016
FFEE
FFF8
FFE8
0009
FFDF
000E
FFEE
001C
FFD4
001D
FFFB
FFDB
0019
0025
FFE0
0022
FFE0
FFF7
0018
FFE3
FFE7
FFFA
FFEE
0015
0006
0015
001E
0007
000C
FFEE
0028
FFD9
001F
0012
0002
0015
FFFF
FFFB
FFF2
FFEA
0027
0017
0025
000D
FFE3
0017
FFED
FFEB
FFEA
FFE1
FFE1
0025
FFF3
0001
001D
FFF4
FFFB
0031
0027
0035
0032
FFDF
0006
FFEE
FFEA
001D
FFE9
000A
000B
FFED
FFED
FFEC
001C
FFE8
FFFF
0023
0020
0004
0004
FFD6
FFF6
001F
0034
FFFE
FFE1
001F
000A
001F
0004
FFE2
000A
0001
0010
0014
FFF0
001C
001F
0001
FFFE
FFFB
000D
FFF4
0016
FFE2
FFFA
FFF4
0000
FFF3
FFDF
0035
0024
0025
0000
0008
0011
FFF9
FFFA
0007
002F
FFF5
0015
0009
FFE9
FFDD
FFE9
0005
FFF3
0002
0024
0008
002F
0029
0004
0024
FFD4
001A
FFFE
0036
FFFB
FFE6
0027
0015
0024
FFF7
002F
FFDA
0009
0004
FFDB
FFFA
0018
001C
0002
0030
FFF8
000E
FFDB
0021
FFEF
0008
001F
FFDC
FFF3
0011
FFEE
FFF6
FFEF
0003
000C
000F
FFD8
000A
0012
FFF9
0000
FFEF
0017
FFFE
FFEE
0007
000D
0006
FFF4
0016
FFF9
FFE9
FFF8
000C
0014
FFDD
FFFE
FFFD
FFFE
0020
FFDD
FFD8
0026
0023
0007
0005
FFF0
FFFE
0029
001D
001C
FFE3
001E
FFDC
FFE3
FFDC
002B
0015
FFF8
0008
0029
000F
FFF3
FFE8
0013
FFFF
0007
001D
FFFB
0008
FFF5
FFFC
0018
FFE6
002B
0039
0002
0008
0020
0022
FFDF
001F
FFE5
0004
FFFD
FFEB
000A
FFF6
FFF4
FFF8
001C
0001
0021
FFFA
0016
000F
FFE5
FFDF
FFDF
FFE4
FFF3
0000
FFF7
0022
FFF7
001B
FFEB
FFE1
0011
FFE2
FFDB
FFF9
0005
0016
0025
FFE6
0008
FFE5
FFE9
FFF7
000E
FFFA
FFED
0002
FFF4
0018
FFDD
FFF9
0008
0007
FFF0
FFE8
000C
0015
FFD2
FFDB
FFE3
0009
001F
001B
0016
FFE7
FFF1
0013
0016
FFDD
FFCD
0013
FFEB
FFCE
0019
0009
FFEA
0010
FFF7
0013
0000
000D
000E
FFE8
0012
0023
FFEC
0019
0007
0016
FFEF
FFD7
FFE3
0026
0028
0020
FFEA
001D
0001
FFF5
FFE4
FFD8
FFF8
FFEC
0026
000A
0001
FFE5
0021
001C
0014
FFED
FFFA
FFED
0028
0034
0002
FFE5
001F
FFD3
002E
0007
FFD7
0014
0010
FFE4
FFED
0009
001D
0008
0002
0005
002D
FFE7
0023
FFDE
FFD5
0017
0003
002A
FFD6
0031
0023
FFEC
FFFA
0005
FFD7
000D
FFDB
0020
FFED
FFE4
000A
FFF7
0023
FFE8
FFD9
FFEB
002F
FFFE
0009
0019
FFF8
000D
FFFB
FFF5
FFDC
001A
000A
000B
0022
FFE7
FFF4
0011
FFEF
0009
FFE2
0024
FFF0
000C
FFE3
0004
0018
FFF4
FFFD
FFCA
0029
FFE2
000C
FFEC
0014
000A
FFF9
FFF9
0012
FFCC
002B
0000
FFFC
FFEE
FFF5
FFEE
FFFE
0001
FFCC
0045
FFF7
FFD8
FFF4
FFE4
0009
FFF6
FFEA
FFEE
FFF0
FFFD
0007
FFE7
FFE6
FFE9
000F
FFE1
0015
0017
0004
0019
FFFA
FFE3
FFD0
003B
FFDA
FFE1
000F
000F
0002
0000
0012
0016
FFFF
FFCC
0013
FFDF
0002
0015
0001
FFE9
0016
0005
000B
FFEC
FFDB
FFEB
FFE9
001F
0028
FFE5
0003
0006
FFDB
0002
FFDA
FFEC
FFDB
0018
FFEE
FFDE
FFEF
FFD0
FFE9
FFDB
FFE1
FFCF
0020
001A
0010
0012
001F
0009
0027
FFF1
0008
002B
001A
0016
0017
FFFC
FFFC
FFF7
FFE1
FFE7
FFBE
FFFD
FFF6
FFD9
003E
FFE6
FFFF
FFE5
002F
FFDD
003B
FFDB
0005
0006
0032
FFE0
0006
FFD5
FFD4
0014
FFD1
FFF5
0010
FFF2
FFEF
FFE3
0015
FFC4
FFEB
0022
000A
0002
FFFC
FFCB
0042
FFE5
001B
FFE0
0026
FFD7
0015
FFD3
FFFF
0019
FFFD
0001
FFD4
FFFA
FFFE
000C
FFDA
0038
FFCE
0012
FFE1
0039
FFE4
0018
0025
0025
000B
001E
0030
0013
0010
FFD8
FFFC
FFDB
000C
FFF1
000B
FFF8
FFFF
002B
001F
0005
0005
0017
FFF6
0013
0014
FFEE
FFEF
FFEB
FFEE
0003
0031
FFEB
0026
001C
000E
0014
002A
FFFF
001B
FFFB
FFF3
0012
FFF4
FFEB
0022
FFE3
FFE0
001B
FFE4
FFEB
FFDC
0016
FFFD
0004
FFF3
0017
0037
FFE3
FFF9
000A
FFE9
0007
FFD6
FFD4
FFE6
0013
FFFC
001C
0003
FFFB
FFDB
0025
FFFB
FFDC
0000
FFCA
0014
0014
0002
FFE5
0013
0019
001F
FFEA
FFED
000D
001D
FFFF
FFF9
0001
FFF2
0003
000F
FFDF
FFDE
001C
FFE6
0012
FFE7
0013
0008
0021
FFD7
002E
0006
FFFC
000A
FFF7
FFE8
FFDF
FFF3
FFEF
FFF6
FFF9
FFF1
FFEB
0013
FFD7
FFF3
0024
0030
0009
000D
0012
0012
0023
000F
0019
FFC2
FFE4
0019
FFDD
001B
FFE0
002A
FFF5
FFD6
0035
0022
001A
0010
001F
FFFA
FFE8
000D
0024
FFDB
0007
0019
FFDA
0035
001B
FFEF
FFF5
0038
0001
FFF4
000E
0025
FFCD
0005
FFDA
FFCC
0009
002E
FFCC
002A
FFCE
0020
0028
FFDF
FFF7
0002
000F
FFEF
FFEF
FFF6
FFEF
0034
FFF9
0005
FFED
FFF7
FFC2
FFEF
FFFE
FFD2
0014
0022
001C
003B
003D
FFEA
0016
002D
FFF8
0026
FFDF
0002
004A
FFE6
FFD2
FFEA
000C
0042
FFC0
FFC1
FFFB
0002
FFFB
FFC1
FFB9
0006
0009
003C
FFE8
0011
0000
0049
003D
FFE6
0035
FFE5
001D
FFE8
FFEB
001C
FFFB
0014
0005
FFEA
001F
0008
FFDA
FFF7
0009
0018
FFE9
000A
FFDE
FFFB
FFE1
FFF1
000B
FFF0
FFE9
FFDE
FFEF
0027
FFE8
0015
FFEC
0021
0002
0006
0007
FFEF
0009
001E
FFF9
0008
FFD7
FFF6
FFE9
0002
FFFA
001B
FFE9
FFCF
FFDB
FFD9
FFFE
FFFF
FFD6
0002
FFE0
0023
002A
FFCE
001D
FFCC
FFDE
000C
001B
FFF5
0016
FFEA
FFE0
0003
0025
FFFA
0017
FFFE
000F
0011
0013
FFE7
0023
FFDF
001D
FFFB
0001
FFF5
0015
000B
FFE0
FFEC
FFE2
FFF5
0018
0000
000F
0019
0022
002C
FFF4
FFD9
000D
0017
FFD4
001D
0003
FFED
FFF3
0016
0022
0007
FFE1
FFF1
FFDD
FFE4
FFF5
0003
FFFA
FFE9
FFE7
002E
FFFB
0027
0005
FFFD
000F
FFEE
FFD9
0020
FFEF
0019
FFF8
FFD7
0004
FFD9
FFD0
0000
FFFF
0009
FFEE
0003
FFEC
0030
FFDA
0026
FFDB
FFE8
000B
0011
0019
FFF5
0013
FFE3
0011
FFE3
0026
001B
FFF8
000B
FFEE
FFE0
FFF1
0015
FFEB
0018
0022
001A
001A
FFF4
FFF6
FFEC
002D
001F
FFEC
FFF7
002B
0013
FFEB
FFFC
FFE6
FFFD
FFEE
000D
FFFD
0014
0007
000C
FFE0
FFE6
FFEA
0005
0015
0035
FFFD
FFE4
FFE9
000E
FFDC
0022
FFEE
FFF2
FFE4
FFD2
0002
0015
0027
FFE5
FFE3
FFDA
0007
000A
FFDB
FFEB
FFE4
FFFD
FFDE
FFF4
FFE9
0008
0026
0011
000E
FFF5
FFD8
001A
FFF9
FFFE
0029
FFE6
FFE4
0009
FFEE
FFDD
FFF4
0026
FFF1
FFF6
FFEC
FFEC
FFF6
FFFD
0004
001D
0002
FFFC
0014
000C
FFDE
FFDD
0022
FFEC
001D
0013
0017
FFFA
000A
0014
FFF7
000A
FFD5
FFFD
FFE4
0016
0024
002B
0005
000B
001B
0012
0007
FFD2
FFD7
FFF1
FFF3
FFE9
FFCE
0018
FFF5
0009
0016
FFFA
FFC9
FFE3
FFFD
0010
FFF4
001E
0020
001F
0028
FFEC
FFFA
FFDF
0013
0018
0013
0011
FFDE
0005
000B
002E
0004
002F
0016
002F
0006
0023
0009
FFCF
0010
0010
0014
FFF1
000B
0007
0006
FFDB
0007
0022
FFF3
FFD7
0006
0020
FFF4
001C
FFF8
FFE6
FFEA
FFE4
FFDD
0014
FFDC
FFCB
FFCA
FFE7
FFF8
FFFB
FFFA
FFCE
000A
FFE4
FFF6
FFEB
FFF6
0000
001A
0015
001F
FFF4
0022
0002
002C
FFC3
0013
FFF7
0021
FFFE
000E
0006
FFD8
FFE9
0020
0025
FFF7
0021
FFDE
FFF3
0008
001F
FFFC
0014
0002
FFD5
0027
FFD7
000E
000B
FFF1
001A
FFF4
FFFF
0016
FFEB
000B
0010
FFED
FFFC
0026
FFE2
0026
FFEA
FFF0
0003
0004
FFDB
0001
FFF3
FFE6
FFF4
FFF3
0011
002C
0010
FFFE
000A
002B
FFFD
FFE6
FFF5
0005
0016
0001
001A
FFD6
000C
0012
0031
0016
FFE6
0013
FFEE
FFFC
0029
000E
FFF3
FFE6
0027
FFE3
FFE6
0030
FFF1
FFEA
000A
0021
0019
000E
FFFE
0008
FFE2
FFD9
0010
FFE3
FFF5
0001
0015
FFE6
FFEE
FFE1
0024
FFD1
FFD9
0014
001A
FFE8
FFEE
0016
000C
0023
0023
FFF9
0001
FFD9
FFEB
FFEC
FFE7
FFFB
0007
0029
0017
0004
FFEE
000A
0028
000F
FFDC
FFFA
FFDA
FFEB
FFDC
000D
0025
FFF8
0018
0012
FFE2
0005
FFCD
0027
FFF2
000F
FFCF
0018
FFDB
002C
FFFF
0026
0012
0017
0022
FFD2
002C
FFEF
0005
001B
0010
FFE8
FFF1
FFF5
0016
0020
FFD9
0026
FFF1
0018
FFFB
0002
0000
001F
FFFF
0019
0012
FFDE
0021
FFF3
0019
FFEB
000B
0007
FFE0
FFF1
0015
FFF4
000C
FFF6
001B
0027
0007
0029
FFE0
0017
0001
0029
0013
FFE5
0006
0020
0025
FFFE
0031
FFE8
FFDE
0029
FFDD
0007
0008
FFD3
0025
0003
000C
FFF6
FFEF
FFF4
0026
0019
FFF4
0003
FFD9
000B
0019
FFCC
0002
FFFB
FFDD
0003
0009
000E
FFF8
0004
FFFC
FFE9
FFE4
001E
FFFC
FFEA
FFDB
FFF9
FFD8
0002
FFF8
FFFA
FFCC
0003
001D
0008
FFF5
000D
0027
FFED
002D
FFFE
001A
FFE6
0013
001C
0014
FFDE
FFF2
001C
FFFA
0001
0001
0003
0019
FFE7
0030
FFD9
FFFC
000E
0015
0005
0022
000C
000F
FFCF
0007
FFF3
FFFF
0011
0019
0006
0031
FFE7
0000
FFE1
001E
001C
FFF0
0033
000D
FFE2
000E
FFE2
0023
FFD6
FFF2
0000
0006
FFDD
FFF0
000E
FFDB
FFF5
FFE3
FFE3
0007
0014
0019
000F
FFE1
001E
000C
FFE5
FFE6
0007
FFD4
FFFA
FFEF
0012
001B
0004
0001
FFFA
0020
FFEA
FFFE
0030
0005
FFED
001F
0001
0001
FFEE
FFF7
FFD2
0011
0029
001A
0010
0001
FFFB
0019
FFCE
0010
FFE2
002B
FFE4
FFE5
000B
0009
002B
FFF0
FFFC
0001
FFCD
FFE8
001D
0001
0030
0008
000E
0018
0007
000E
FFED
0010
000E
FFE7
FFFD
FFEF
0013
FFF6
FFF3
FFE6
0013
0029
0013
FFDA
FFD9
FFF6
FFF3
FFEF
FFFF
FFF2
0006
001D
0018
000D
002F
FFF8
FFE1
0001
FFFA
0013
0022
0009
0016
002D
FFEB
0003
FFC8
0029
FFF0
000E
FFFF
001B
001B
FFD6
FFD4
FFF8
0002
FFE3
002E
0004
000B
001B
000E
FFDC
0034
FFE4
002E
FFDD
000E
FFF2
FFDF
FFCB
0005
0007
FFCB
FFE2
001A
0004
FFF2
FFCB
0034
0016
FFE7
000C
FFEB
0014
FFE1
0025
000F
FFDB
0007
FFEC
0013
FFF0
0024
0019
001A
FFE0
0007
002D
FFDA
FFF9
FFDD
0018
FFFA
FFFA
0004
0005
FFDA
000B
0021
0003
FFE1
001C
FFF4
FFEC
FFEC
FFFD
FFF8
FFE6
FFF1
0020
FFFF
FFF4
001F
0024
FFFC
0035
0023
0023
0008
001A
0029
002E
FFCD
0007
FFE6
002A
0011
FFC8
FFEC
FFFB
FFCC
0000
0020
000A
FFE4
FFD7
001F
0026
FFD8
0022
FFE9
001C
000A
FFF5
0019
FFFA
0007
0017
FFFD
FFEC
FFE0
FFE1
0009
001B
FFCF
FFD9
001A
FFFA
000C
FFDB
FFF5
FFF2
FFDA
0004
0024
0009
FFDB
0005
FFFA
001E
0029
FFF5
0014
FFE1
FFFA
FFFB
0000
FFDE
FFD4
0021
0010
FFDD
FFE1
FFE3
FFD8
0000
FFDD
0026
FFE1
FFDE
001E
FFEE
FFFE
FFE7
0000
FFD3
0017
FFF7
000C
FFE3
FFF7
0006
FFD3
FFCE
0022
FFFA
FFD6
0026
0008
FFDD
002C
0004
FFF3
0034
000A
FFE0
FFF3
0017
FFF1
000A
000A
FFDD
FFFB
0009
FFF8
0001
0012
FFE8
FFDA
0017
000C
002D
FFDE
000F
0002
FFF7
0004
002C
0024
FFFA
FFF8
0015
000E
0002
FFF8
0014
FFEB
0001
0027
0001
FFE6
FFEC
0011
FFFC
002A
000E
FFFB
001C
0007
FFCE
0029
FFCF
FFD4
FFE7
FFF4
FFD4
FFEE
002C
FFCC
FFED
001C
0034
FFCE
FFEB
FFD8
000A
FFE6
0023
FFEB
FFE5
FFF1
FFDF
0002
000D
001A
001B
0007
FFEF
FFE9
FFF9
0010
FFD7
FFEE
0028
0005
FFF1
FFCC
0025
FFD8
FFF4
0026
0004
000F
FFF9
FFE5
FFF8
FFF8
FFF8
FFFF
0005
000B
0019
FFD8
FFE4
0009
000C
FFD7
001C
FFF2
FFEC
0008
FFD9
FFFD
001E
FFDF
FFEE
000E
FFE8
FFF8
FFE3
FFF5
0036
FFF6
000F
FFFF
001B
FFE5
FFFB
FFF6
001C
0021
0016
0015
000D
003A
0013
FFFA
FFCC
0028
001A
FFEB
0001
001D
0018
0008
0024
FFFF
0010
0004
FFDD
001D
0006
FFE7
FFFB
FFE0
FFF8
0028
FFE3
000F
FFDE
0020
FFE4
FFF1
0005
FFF9
000F
0011
FFF0
FFFE
0001
0025
FFDB
FFFD
0023
FFFD
0004
FFF6
FFDA
FFF5
0009
001A
0029
FFF1
FFE0
FFE1
001A
0007
FFF6
FFFB
FFD3
FFF7
FFD5
FFF2
001F
0011
FFF6
0026
FFF3
FFE0
FFE9
0010
0018
0000
002C
0007
0031
FFD1
0029
FFE8
0002
0008
FFEA
FFE9
0013
FFFC
0010
000F
0003
FFDA
FFDC
FFDD
001F
FFF1
0027
FFF8
FFF4
FFE5
0017
0002
0016
0028
0028
0002
0011
0005
000C
000A
FFE3
001B
FFFC
FFF2
001D
FFF4
FFF4
000E
FFD8
0012
FFFD
000D
FFEB
FFEE
FFEE
0002
000F
0024
001C
000C
FFEE
002E
FFFD
0016
0026
FFFA
FFDF
000D
FFE3
0019
FFDD
0014
FFEF
0014
0010
FFF6
FFF7
0014
FFD1
FFE5
0036
FFF3
FFE7
0032
FFEF
FFFF
0032
FFE2
000D
FFDC
0018
FFFA
0022
FFD9
0024
FFF8
FFF2
FFF1
0015
0006
001F
0003
FFF3
FFEF
FFF1
0012
FFF7
000D
001A
FFF8
0012
002B
0018
0017
0028
0016
000F
FFD4
001A
FFFC
FFE4
FFF0
FFEB
001C
FFEB
0016
000A
FFD7
FFDB
0008
FFED
FFE5
0029
0001
FFF9
0014
0017
FFE9
001A
0020
0031
FFF2
FFE2
0009
FFF6
0013
001D
FFF5
0022
FFCD
FFF7
FFF1
000D
FFFD
FFEA
0001
FFF6
FFD8
0036
FFEE
000D
003F
002E
0006
0003
000A
FFDF
0006
0003
FFEC
0014
FFEA
FFDD
0013
FFF7
000E
FFFF
002C
0003
0001
0003
FFFF
FFF1
0026
0022
FFF9
001C
FFF4
0004
001A
000B
0007
0005
0005
FFD1
FFEC
0024
0009
0023
FFFD
FFEA
FFEB
0037
0032
0024
0031
002B
0001
FFFF
FFE0
0019
FFFD
FFE7
FFF2
0026
FFFB
0025
0020
FFE6
FFED
FFD9
FFFF
0029
FFE2
FFD3
0005
001B
0003
FFDA
0025
FFE3
FFDC
0040
001D
FFE8
0006
FFF0
000F
0015
FFE0
FFDE
FFDA
0002
FFE9
FFDA
FFEE
FFF2
000D
000B
0017
0019
FFFC
FFE9
0027
0018
001E
FFE0
0010
FFD8
0011
FFE4
000B
000E
FFDC
FFEE
FFFF
FFDB
002B
FFE8
0000
0003
0010
0001
FFD5
001C
0008
FFDE
FFDE
0016
0015
0001
0014
002E
0003
FFD9
FFEB
001E
FFFF
FFE8
FFF2
FFE2
FFDF
0006
001E
FFF2
000E
0023
FFDD
000E
0020
FFEA
FFE0
0016
003E
000F
FFED
FFE7
FFE0
000C
FFEB
0014
0012
0020
FFF4
003A
FFE8
000E
FFD6
FFF9
0011
0036
0019
FFD0
0007
FFE5
0027
0018
FFFB
000B
FFEA
0011
FFE9
0022
0002
0011
FFDE
FFF4
FFE3
FFF1
FFEC
0017
0003
FFF0
FFF7
FFEE
0008
FFD1
FFDA
001E
FFE9
0039
0007
000F
FFD7
FFE6
0006
FFF4
FFEB
FFF2
002A
FFDB
002B
0016
0028
0009
FFED
0014
FFEE
FFD9
0009
001D
001C
0022
0009
001B
FFEC
FFED
FFDE
FFE8
FFE6
FFF5
FFE4
0015
FFEE
001D
FFF6
000A
001D
0008
0010
001B
FFE2
0011
FFF1
000B
0012
FFEB
0007
FFFC
000E
FFCC
FFF6
FFE3
0006
FFEA
FFE8
FFD3
FFF4
001B
0021
FFD1
0025
0001
FFEA
001E
FFFA
FFD6
FFD4
FFE1
FFCC
FFE6
0010
FFD0
002D
0005
0014
0001
FFFC
001A
0015
0021
FFEF
FFDA
FFD7
0015
FFC1
0021
0008
0007
FFF0
FFFF
FFE2
FFE0
0028
FFDD
0061
FFF3
FFE7
0024
0020
FFD8
FFE2
000A
0020
FFE6
FFFB
FFF8
0017
0016
FFEC
0014
0014
002D
FFF9
FFE5
FFFB
0012
0010
FFFC
FFE1
FFED
0002
000A
001B
0005
000D
0025
FFE5
FFEE
0018
FFEE
0019
0024
FFE9
FFF9
FFDC
001B
0033
0025
FFF2
0036
FFE5
0000
0023
FFFA
000B
FFF6
FFEF
0028
FFFF
FFFB
FFF9
001F
FFFC
FFF9
0032
001A
000C
FFF2
FFEE
FFF7
0026
FFF3
0000
002C
001A
FFEE
FFF9
001F
FFD3
FFEF
001D
FFF7
FFED
000D
FFFF
000A
0005
FFCF
FFF7
0022
0025
FFFF
002B
000F
FFE9
002B
FFFD
0021
001C
0016
0003
0010
0003
FFDA
FFF6
FFFA
FFFB
0002
0023
FFF4
FFD8
0010
FFD2
0011
FFEC
FFDB
0027
0015
FFCB
FFEB
FFE8
0014
FFF1
FFE6
0009
0001
0035
FFD6
0010
FFD8
FFDD
FFDF
FFD7
0030
FFD9
0023
0000
003B
FFF3
0033
FFDA
001D
0016
FFEA
FFE4
0013
0000
FFE6
001C
000B
FFDF
FFD6
0023
FFE9
001E
0005
0011
FFF1
FFEB
0011
FFDC
FFE5
FFDE
0018
000F
0003
0028
FFDE
FFE3
0021
001B
FFEE
FFE4
001C
0026
FFFF
001A
FFF1
0014
0011
FFEA
FFD9
002B
000A
FFFD
002C
0018
FFE5
FFF2
FFD9
001B
0029
FFE0
FFE3
FFDA
FFFD
001B
0000
FFE7
0017
FFE5
0000
FFDD
FFDD
FFE4
0014
FFF8
0016
FFEB
FFF0
0035
0025
002C
FFD2
0020
FFF0
0029
000D
FFE2
FFF1
0005
0006
0008
0004
000C
FFF2
FFEC
0017
FFF6
FFE5
0001
0023
FFFD
FFFF
FFFD
FFF6
0005
0009
FFE8
FFEC
0023
0013
FFDC
0010
0014
0013
FFF8
0021
FFF7
FFDD
0026
FFE4
FFFB
FFFD
FFF5
FFDF
0000
000F
FFE0
001B
0032
0024
0032
FFFB
0005
0028
0000
001A
FFE0
FFE2
FFD1
FFE7
FFCD
0020
FFF0
FFD8
001B
0020
FFFA
001B
FFFB
0032
0011
0020
FFE0
002C
002E
0009
004A
0007
000B
0010
FFFE
FFDD
FFE9
0014
000F
0011
FFEE
FFDF
FFDF
FFF4
FFF0
0000
FFF5
001C
0024
FFF2
0023
FFEB
FFFB
0007
FFE8
000D
FFDB
001E
0000
FFF6
002C
FFF1
FFEF
FFE3
000D
0026
FFEC
001F
0012
FFDD
0000
FFF3
FFE7
FFE7
000D
FFD8
0015
FFFD
0012
0019
FFEA
FFE3
FFE3
FFC9
001A
FFE0
001C
FFFD
FFF8
0013
FFF5
001A
000C
FFCC
0003
FFDE
FFFC
0022
FFF1
FFFE
FFD4
FFF1
FFDB
FFF4
FFEA
FFF2
001D
0031
0022
FFF5
002C
FFDE
FFEE
FFFC
FFFC
FFE0
FFFD
0021
FFEE
0018
FFD2
FFE6
FFE0
FFFF
000D
FFED
FFDA
000E
FFDE
001B
FFFB
FFD6
0004
FFEF
000D
000C
0007
0000
FFE6
0015
001B
0017
FFFD
001F
FFCE
001B
FFE4
001F
FFEB
FFEF
0003
FFCC
FFEC
FFF7
000A
FFDB
FFE4
FFEB
0012
002A
0017
002D
0013
FFF7
FFD8
FFE2
0035
FFE9
0019
FFD3
001C
001F
FFCC
